/**
  ******************************************************************************
  * @file    student_c1j_ptq_int8_data_params.c
  * @author  AST Embedded Analytics Research Platform
  * @date    2026-05-27T17:14:27+0200
  * @brief   AI Tool Automatic Code Generator for Embedded NN computing
  ******************************************************************************
  * Copyright (c) 2026 STMicroelectronics.
  * All rights reserved.
  *
  * This software is licensed under terms that can be found in the LICENSE file
  * in the root directory of this software component.
  * If no LICENSE file comes with this software, it is provided AS-IS.
  ******************************************************************************
  */

#include "student_c1j_ptq_int8_data_params.h"


/**  Activations Section  ****************************************************/
ai_handle g_student_c1j_ptq_int8_activations_table[1 + 2] = {
  AI_HANDLE_PTR(AI_MAGIC_MARKER),
  AI_HANDLE_PTR(NULL),
  AI_HANDLE_PTR(AI_MAGIC_MARKER),
};




/**  Weights Section  ********************************************************/
AI_ALIGNED(32)
const ai_u64 s_student_c1j_ptq_int8_weights_array_u64[92576] = {
  0x736be9c4f5bd81d2U, 0x103d7f39c4a1be54U, 0xfa81fc09dcefef13U, 0x81f319d4f70a02f3U,
  0xb009909df51f0bf9U, 0xaf3208197f27422cU, 0x71dad21c14977ff8U, 0xff03eddbf57ffbfeU,
  0xe185e9277f1cfaf3U, 0x37cbec7f9ec578bbU, 0xdbfeba810a1d0cfbU, 0x77dfa257ebcb1cf8U,
  0x8699ff7f667f97e2U, 0x7ffeefddf90103ffU, 0x2b812df3dd390536U, 0xb9a22e92294d8a67U,
  0xfe5b3dae7ffb9a35U, 0x664dda147f36d2cfU, 0x197400002de9U, 0xfffff0b40000490cU,
  0x5e400001574U, 0x35a00003508U, 0x18adffffff64U, 0x676000010b0U,
  0xffffffd800004c4eU, 0x30a7fffff681U, 0xfb10c7d3f17ffefcU, 0x26e4fc07fe01dafaU,
  0x7f057f61d233e67fU, 0x88179f7bd817fccU, 0xf5baede0d09afdf1U, 0x1fee0c7fff1069efU,
  0xff140622fd4c01f9U, 0x3dfbf7fbfc0c0212U, 0x947f6e5e7f237ffdU, 0x81057f077fa90781U,
  0x1cdff8111c0f601U, 0xd1100396f6fbea0aU, 0xffe1f81bdd300006U, 0x35fdf6fd0001fe04U,
  0x23dd7aa58c6f2f5U, 0x214f124e413be07U, 0xffeff234dc9bf304U, 0xf0d3f6cbfdf7b7faU,
  0x37000000f8U, 0xfffffd5cfffffed7U, 0xfffffb4400000a17U, 0xffffffa800000007U,
  0xfffffe6900003c2aU, 0xfffffedd00001946U, 0x95e0000030dU, 0xffffff3e00000a85U,
  0x5909389aa681e235U, 0xc360f98113409bf8U, 0x89485828d8dcb181U, 0xef63b649c44a2b3U,
  0x2a81b06a02cdc7c9U, 0xc9fa17114bf93d7U, 0xc09c6ead83e1683U, 0x537d4d0e781fd0dU,
  0x7feb16fc44fe0bcdU, 0xff290e4d31f7ee35U, 0xed16f71eedfe6b7fU, 0xd404d2f48ce40927U,
  0xaddfd6ba28ffbec9U, 0x2708e711c21c077fU, 0xe39b4ae21be0dcdbU, 0xdff853d5c19f3981U,
  0x283b0000192eU, 0x339f000037ffU, 0xffffcfb5fffff042U, 0x3a6200000770U,
  0x384564a73f0b367fU, 0xd9d2ff8133f21666U, 0x8179b881dcd5c9aaU, 0x46ebe02eaa3c81f7U,
  0xd87f54d2486adb65U, 0x97123b81d5dbba7eU, 0xe7f354ff457533bU, 0x84f16102ce810326U,
  0x7fbed7b3d5d7f397U, 0xdde6f006e7357f5dU, 0x9a8134b9206c40f3U, 0x7fd73cb8c1f043U,
  0xae5fd50491467f34U, 0x2d7faae706346521U, 0x27dc7fe7fff0e413U, 0xe04f137fdac3cff1U,
  0x182e2ce810f58115U, 0x7fadee1bd7d2641cU, 0xf3d37fd6b2c78469U, 0xffd57fd7bb58fea9U,
  0xf90e7f8817abeffeU, 0x4a20b5f27f775538U, 0xc2c5cb39e54b8145U, 0x152eee9a856c7fd5U,
  0xfa1663ac7f52dab7U, 0xe210574481c3daebU, 0x126fcb223ab9c47fU, 0x81e7fbe7fc244f1fU,
  0xfd74a6161307647fU, 0xc1ed2f81d2cee45bU, 0x8db7fc3be0cba29U, 0x75df26de7f461f06U,
  0xe7f9eb7f0a3ab6d2U, 0x2f32c7137f420fbeU, 0x3a57acf5fe7f074dU, 0xe6f788569093c67fU,
  0x2bd03cf62cd181f7U, 0x7fa4b7e1dce944f5U, 0xc9b4e775e8108100U, 0xe75965ab7f37df0fU,
  0x161854df8137a952U, 0x604fe336437f19c1U, 0xbbfce881f2d5c03bU, 0xd5e235c6ba81092fU,
  0x2a3fef78b5ab7f31U, 0xb8411eb80b7fc94aU, 0x26556e81ec0452c8U, 0xc970944d7f4132d3U,
  0xbd100000960U, 0xfffffc83000003e7U, 0x5cd000002d5U, 0x107600001352U,
  0x2c700000ae8U, 0xd90000011e8U, 0x18fefffffe20U, 0x20800000575U,
  0x3ec000003e0U, 0x18a0000021eU, 0x63f000016deU, 0xa40fffffffdU,
  0x13c00000360U, 0xc5cfffff993U, 0xcf500000283U, 0x596fffffe54U,
  0x5000001f2U, 0xf50fffffea3U, 0x49d00000267U, 0xfffffe8200000329U,
  0xfffffe77ffffffefU, 0xf700000106U, 0x30900000160U, 0x21c00000c9fU,
  0x81ade08e3bbdd6eeU, 0x9fc14d57fd3d881U, 0xbe10dcca4c33fc4fU, 0x1bdeef7f4f08ebbbU,
  0x409911cf175b1332U, 0xe9d0fd7f76bf10e6U, 0x18125fb299d1812U, 0x5cc52e3e833577c2U,
  0x813ca5f65230de2bU, 0xbdd44e658145ff01U, 0x71e72acaee58280fU, 0xe2b2f5f5d7f90fceU,
  0x20c8207dfdc119fcU, 0x41e90a4408fcfa10U, 0xda2cd9f04b08c8b5U, 0x21f1c71e251eea14U,
  0x202cfff6b82de6b7U, 0x6deccb11a0eeaeaU, 0x9be9239159b6a820U, 0x615c731aba8dcabU,
  0x437fc837f5af175U, 0x3099b76a49462481U, 0x71813c1111667f3aU, 0x94c111697f85e52cU,
  0xbffb815070817f7fU, 0x7f7f817f337f7f0dU, 0x137f278e7b7f810bU, 0x81815446837f7f37U,
  0x7ffa7f1fc37f7e5eU, 0x81811baa398138ddU, 0x49e4427f32afb442U, 0x4f2be05f1bd39161U,
  0xf1511fc5420c9181U, 0x41bcf9e2403c4028U, 0x105a3215812d0881U, 0xcaccedf415e114fbU,
  0xf40b06ab4ceac711U, 0xb6072038b2e1f4e5U, 0x72d11ab2aeff63eU, 0x26df3dde1a3817d9U,
  0x60b6156108257c1bU, 0x910335381bcd8163U, 0x882df6257fcf5d5cU, 0xeb08425d6349190cU,
  0x75678813132d6e4U, 0xb99481b0ba484420U, 0x3a14337fd31c7026U, 0xc9fa7fbb2abf2d7fU,
  0x4e03fe2d4ceabf44U, 0xeef61225e6dab629U, 0xff2e7fbf0103d2beU, 0x2cd839ae2d223f0eU,
  0xf03b103ad6e626a2U, 0xe6f90fe1f6e92735U, 0x498ffffe0feU, 0x6310000505bU,
  0xffffff54fffffcd9U, 0x13d400002acaU, 0xfffffe0800001068U, 0xffffffc7ffffffebU,
  0x27cfffffe97U, 0xfffff200fffff674U, 0x29fc00000028U, 0x137ffffff87U,
  0x42700006a59U, 0x1e570000149aU, 0x180000032eU, 0xfffffe4a00000045U,
  0xffffff710000085aU, 0xffffffad00001b07U, 0x18a00000017U, 0x1934fffffbb6U,
  0x178fffff939U, 0xfffffa990000055fU, 0xfffffff70000019eU, 0x460000299bU,
  0xfffff7a3ffffedffU, 0x2f6b00002d84U, 0x3dba0df6f5ff1830U, 0xfec6bef6e9d4e614U,
  0xcc06255bb7880cddU, 0xf0460534f517b408U, 0xe4eefc06067f5b3bU, 0xd12306e3bd432dd2U,
  0xfb2714e00820f1a5U, 0xa2f01645563efaccU, 0x3f33637c7fe1ae20U, 0xf8e63c9e1c18e1e1U,
  0x110b3bdae00a0d07U, 0xd3deb614130610afU, 0xef55ceb056855feU, 0xaed8f30b3d69ef88U,
  0xcc24b094ae09824U, 0x7ff54ec95db3fd14U, 0xf4046da909072b3eU, 0x13c2fde933dc65e8U,
  0x1f0a00cd10d110ecU, 0xdf0f3d503e324309U, 0x5d034e7f61e50217U, 0x15a853bc597b130cU,
  0x1d020359d81b52feU, 0x8af3d2494e0c15f0U, 0xc13cdc06ef0bdd11U, 0xe70220dc04f7c7f2U,
  0x27281d02f4f38adeU, 0xec2edff3d6ef10fbU, 0xd50e7fd4dee5bbeeU, 0x4a08f919ddf6c9ccU,
  0x5210e01ac8b403dcU, 0x27b2c85909224664U, 0xd132fe2d24d5e036U, 0xe22cfaf837fc0700U,
  0x507ff8d852c0242fU, 0xeea1362be6f9d6a9U, 0x2bfdf13ef30dfb2cU, 0xfbfcf11a241f09ecU,
  0x2c4f284514c87fe9U, 0xf325e4fb2a24c125U, 0xfe898dc3d29310bU, 0x13300001e142fbceU,
  0x12f11329bfef2872U, 0xb3d314d2e418c7U, 0xdd81e6f8abdc27c0U, 0x12450c48f1ce43e6U,
  0xd8e9ead4032960f3U, 0xece648ed1c0834e6U, 0xf403b3f62f0a93f2U, 0x7e5f77f2a571aedU,
  0xf8d7121845d8ce13U, 0xef49b1fb1e62df0bU, 0x22193bdefe32cbcfU, 0x30e4d143ba79dc05U,
  0xd942fa6164c5f0f6U, 0xa2d2138270e02deU, 0x3708e79f4c57630dU, 0xedca07b0dbcd59bbU,
  0x630ab2183181e9b9U, 0x988fd4645d8f700U, 0xe3d3f49f26171a1cU, 0xece3dd04d3a9c306U,
  0x1702525881d1d8f2U, 0xd6f0fdd7b5c4edafU, 0xdd36cf1fc9703109U, 0xe59ed2f7ff0232fdU,
  0x1cbc1dc920151544U, 0x19f4b4e71d0edc2dU, 0xc781c7b315cdc8eeU, 0x26d5041e1b57c050U,
  0x1615071ff10adcebU, 0x4a97e02fb04f05e4U, 0x3306f87a77c8feceU, 0xdaf30cb5eadacc13U,
  0xbd40231aee832822U, 0xf37eefeadcadcfc5U, 0x6ea9547f3ff22b37U, 0xe4fbf625d11f05dbU,
  0x3081192f4fd138efU, 0x1dbfc9d1fc0ee2fcU, 0xcbe7d0e7ceefb003U, 0x505820d20afefa3dU,
  0x34b5cc556e03132U, 0xe7d28ee241c44111U, 0xe7140ae1b554d7aeU, 0x81f605ec18f5e7b9U,
  0x23d1085135ef1d05U, 0xc6f900bdd3f7c0d1U, 0xfbb7a5f1bef6e1b4U, 0x29e39ee00939edb8U,
  0xd1f67dda170c0cfeU, 0xd71fcfea46b58fd7U, 0x133b12184e1ddd99U, 0xc6a87f258336d6ddU,
  0xaec11cb9a350110fU, 0x8849ebbdcde034a4U, 0xfffff16cffffe5e3U, 0xffffb0deffffd2b7U,
  0xfffffc0dfffff280U, 0x2731ffffe11aU, 0xffffea0fffffe11cU, 0x402400004c83U,
  0x2eaf0000060aU, 0xffffff4a000035a4U, 0x7eecd8d503cbe7fcU, 0x6aff1bd5e6190681U,
  0x7f314606e95c0df1U, 0x3107fbe4580e1ae7U, 0xff8124071a2409f7U, 0x2af63be47102ae10U,
  0xf2fbeed71b9117f9U, 0xf22d35fb157f2cd7U, 0x27172d0ce89b0df4U, 0x2ecb26a5487e8138U,
  0x62e7b3147f69d6f2U, 0x6e0875c0d00aa613U, 0x95171aacddebe93dU, 0xaa7f81ce60e4445cU,
  0xc3ccaf378f0f027fU, 0xdf21c7dd0ff20cefU, 0x2187eb191c3f1111U, 0xbecc0d7fcadbe9e8U,
  0x20307fee01a002eaU, 0xd502b8000c0a1b3bU, 0xeb08ea1bd165e702U, 0xd027fe4dfcfc10fU,
  0x810dcbff16def905U, 0x3fd3edf79dc9e1fcU, 0xe6ca81c1d6c2632fU, 0x36ead1e8009763a5U,
  0x9c31ea52d4b3efc2U, 0xbff0a632d7fe6feU, 0xfec1206727dc01ffU, 0xd1a55281221dded7U,
  0x3f29efdecabc7f88U, 0xf5d0031b2f12b0ecU, 0xb3d3ef1bc375fa10U, 0xfe3b9a7f76b353b3U,
  0xcd7fa2a3e8fdf4d4U, 0x4f3a450e244cb877U, 0xb26b181505dfff11U, 0x414e7a4499c0b7fU,
  0xfdbc1a7f8ee400faU, 0x701efafed224d339U, 0xe7b19255fde6cdf8U, 0x7f60be300415eb04U,
  0x7d38cea9c21b261fU, 0x815c154344d514f3U, 0xf3faf3c6f7fdfcfbU, 0xeb560381b73ee150U,
  0x8c513119dfe2d92bU, 0x3527ca2e7fbf2947U, 0x83dfb1f47fc2ef17U, 0x2abbfdffcbded01bU,
  0x6bb7f4fc294fcfbU, 0xcd3191d25c1c27faU, 0x81fc66ef2acafffbU, 0x3ad0dbc36adae96fU,
  0x26ca2a0ac0ee1501U, 0xbb0206097f27f5dbU, 0x5d15f5f9ea2debb8U, 0x815a45027d5b9973U,
  0xff47d4ee02d207ffU, 0x210c06e7cd0f8110U, 0x2be3fef1040016d7U, 0x23d905d8577fc237U,
  0xad6528813da5d6e9U, 0x4cdc5f5bba520c3cU, 0x68ad0ab81d233ecU, 0x11c374420f28735U,
  0x10e0f84bb7e118f2U, 0x48bf200bdb16ab81U, 0xfdd1effd7f0edf14U, 0x502fb09ebef0814U,
  0xe1eace15f936f4f9U, 0xfef37f2f13330524U, 0xf1807370da63b07U, 0xd7e737810b3ee8dfU,
  0xc63f4ec3d0ad010dU, 0xe5289cd4ae1c2081U, 0x1611bfdb1c8416fdU, 0x69bdd3ac57818c55U,
  0xccbae17fd1f502f7U, 0x582ebde0fd7aa2e5U, 0xf93ddd05d7bc0d0dU, 0xef4a8117ff6d35dfU,
  0xc9f1181a343e8141U, 0x143204f4ddf42812U, 0x16f322e20fedc981U, 0x561d2f3b131cc51fU,
  0xf9ff4c32ecb3fb05U, 0x613d481460c0cf2U, 0xe7051f16442181ceU, 0x1a451a09db24d518U,
  0x99d73ad94fd31114U, 0x12ed3e7d812a1305U, 0x127fd9ddfe100208U, 0xf015de2925cc4419U,
  0x2b1b0cf01e190116U, 0x38097f31c7fdddd0U, 0x3f81d8002719010eU, 0xbfd1bb9c5fbf8bcU,
  0x1705b82dcd260ef7U, 0x97fbbd40531db25U, 0xf2ca810e9bf6141dU, 0x331ae5ce579c1b04U,
  0xc42dab235ce100f3U, 0x64fa81d8a00eede9U, 0x6337b932257ed1dU, 0xdd77b4004e288172U,
  0x2540fca604ac0406U, 0xf21581e1b92d2ebaU, 0x1c2d0bf007fdf381U, 0x1fff0a250822b30bU,
  0x7f153f1bda170601U, 0xc13e23ea2a2a0930U, 0xb137f35ba3bef10U, 0x905cd36daeafff1U,
  0x814d3121b1d029d5U, 0x19ed81129828a8d7U, 0x42c40b0708cffe17U, 0x2efe4281f40535cfU,
  0xb53435bb7bfa1f05U, 0x327f93b51be83769U, 0xd681e04201b4ded7U, 0xe0b4ebc1120336dfU,
  0xe1c0b03ea1efa07U, 0x45fa1eee7fb81e4cU, 0x61067f0202defaffU, 0xb24fcfcfed13e70fU,
  0x7d0621b54622e9f5U, 0xe33d3112cb7f2518U, 0xceae2f7ccce7f4fU, 0xc8dafae01dd924dbU,
  0x17ccf9ac9dac0013U, 0x106bed81040b6996U, 0xe9dcf52ee9c33c7fU, 0xda1203ba15cd51f7U,
  0x7fe93c092c050500U, 0xd14b1013f361cf6U, 0x7f2031db251a0708U, 0xb13fcf0af736e743U,
  0xd30fd0b6328102f9U, 0x801e3f6ea45102bU, 0xb38130ddee3cf307U, 0x2cd533ff2e1bbfecU,
  0xa2ea12d15f27f6c9U, 0x593371e2814c55b6U, 0xe6eded0beafe097fU, 0xd81305cef3e051fbU,
  0xfc49ec0f3e38d846U, 0x127fbfb23fbc75b1U, 0x1cc281b2e425dcb6U, 0xf703d43d27bc5e0fU,
  0x7fbddd2eb3faf314U, 0x844b112f1b7ce3fcU, 0x2c11edc4d481f303U, 0x1760caf6ad722fd4U,
  0x9517fe2f3e2e609U, 0xcc76374bfc3d0812U, 0xbb0cfdc112c7231dU, 0xf8186fe77f8935b6U,
  0x2c20ca81ebe240abU, 0xc81d412bb22ddfcfU, 0xea81c524fd05050eU, 0x13806c83324ce2aU,
  0xe1d4f60af6060f7fU, 0xe404fdd5f6d647f4U, 0xdc2686e750e30fd4U, 0x21db81cb10c3c62dU,
  0xf51dae8d4cfec05cU, 0xc381762b9f770b46U, 0x42d1d210fea7e913U, 0x5c4503ea7ff37797U,
  0xefa508ed2ed3f606U, 0x20814dc7fbf054c8U, 0x8159b9e6ca98ea0bU, 0xf8699c1702b0e21bU,
  0xe758900ddd02050eU, 0x2ae36b8168f1c490U, 0xb9e15b3f0cd3e10aU, 0xd7c22805f9f8bf7fU,
  0xee1120133b3281c9U, 0x2d2f0a1ae619e41bU, 0x26199dd3fffb04f9U, 0x114754d9813514cbU,
  0xdc0b39db7fedfafdU, 0xf91aa61f26ae2e66U, 0xf93924fa1b2da881U, 0x2529f44a1d2e99f3U,
  0x35772d41d004f081U, 0x150ce317ea2f9423U, 0xae4644ce1d81f80dU, 0x2a17af9bfba6fb2fU,
  0xd6404e7ff7f22af8U, 0xba16bf022311d551U, 0x50e000004c9U, 0xfffff82500000d82U,
  0x374fffff5f9U, 0x789000010d3U, 0xfffffc7500001208U, 0xc6500000d86U,
  0xfffff89200002533U, 0xffffedef00000d54U, 0xfffffa0100000c5eU, 0x50c0000184cU,
  0x157e00000404U, 0xc3b00000290U, 0x33e400001cbbU, 0xfffffb8800000915U,
  0x1f8fffff734U, 0xffffece5fffffe25U, 0x2beffffffacU, 0xc2efffffd82U,
  0x1b100000083aU, 0xed9fffffabeU, 0xc360000091fU, 0x7f0fffffac3U,
  0x76500000163U, 0xbb000003faU, 0xd80000159fU, 0xaaa00000901U,
  0x64100002a76U, 0x19f7fffff5afU, 0xffffffe90000070bU, 0xb3a0000068fU,
  0xd0f00000738U, 0xfffffd0000000f35U, 0x296fffffe3bU, 0x499000007cbU,
  0xfffff7e4fffff98bU, 0x626000011baU, 0x145d00000f9dU, 0xfffff88700000c4cU,
  0x716fffff2e1U, 0x23db00000b17U, 0x914000014c2U, 0xfffff61cffffff53U,
  0x628000007b1U, 0x2b800000fe0U, 0x29800001956U, 0xf7afffffcbbU,
  0xffffee9cfffffe25U, 0xd39000008c2U, 0x481292be70a11d1U, 0xf90e20f9f52b232aU,
  0x2efe2f4f55d3bf4U, 0x13b301e51abfc9f1U, 0x35f7f8ed20200019U, 0x27f3f825e50e00a7U,
  0x1d070bcf00f611eaU, 0xee06221fb4058ef8U, 0xeda67fb2b15f1019U, 0xce2dedf1991c0112U,
  0xf2ef1f9f1f01ec39U, 0xcb4ee622d67d42e3U, 0x74397f967ff0fc8eU, 0x38817f813ecfa87fU,
  0x30190c41c1dbe481U, 0xcce40a633760d9e7U, 0x16de7f2c7f25557fU, 0x8fd0815241f838f9U,
  0x3f30cbf881277f81U, 0xc86e81ffcbd01916U, 0x817f6f8960bbf12dU, 0x1b7f8114dcee814bU,
  0x1f08a9b3e8213eb1U, 0xc52450f38f237f29U, 0x30051021f3e2cfcdU, 0xf42d25e2f80000e0U,
  0xefe6f1b31298c61bU, 0x1bae0bff022a9bfbU, 0xc3edcf8fc141ddfU, 0xd5b00405eb1cfffdU,
  0xc06f8f8030010f7U, 0xe60011fd81c68105U, 0xcbf56febfa9ef901U, 0xfae421fdc6f2eb97U,
  0xfcfe1812ec170707U, 0xbce0f7e745cdfd2eU, 0x103413f0d45cd03dU, 0x20f3f6dbb08181ceU,
  0xed7f0d30087f7fe7U, 0xe7a3e1fceefdeaf4U, 0x7fb30ee2bd165ee5U, 0xce7b0d67991e35e4U,
  0xdd10167fc7ed12abU, 0x8ab7f036dfeee43dU, 0xcfa3e53c1f181a1cU, 0x9b32421e410dfU,
  0xf4be1f68280d0b1eU, 0xfc04dbd3b9d1cbbfU, 0x274ed4fe1e227f73U, 0x7f3632657fb2f9edU,
  0x57a77f4a3fa9d86bU, 0x8dec81737f7f7f02U, 0x2b81097f76ce7fb2U, 0x852c68d012817f7fU,
  0x817f814ee1833b94U, 0xe47fe15e2e7f8f7fU, 0xc81fb305b37f7f7fU, 0x7fc9dc7f7f1458beU,
  0x7ff8c2bb7f2b7f81U, 0xa8063e7fb8423ca7U, 0xf6cbf44a0517ad81U, 0x5df14d6a6cacfedU,
  0x14f6dd0a02bcad33U, 0x7bfd6d8eaa71cf6U, 0xd7f5edf8b20df1f3U, 0xfecafdf8021c0ab6U,
  0xfb0f21d7dbdf04e5U, 0x16cf23f846f01105U, 0x3ecd7fafdaf22feU, 0x1426041fdc05057fU,
  0xeb540204f415eb0eU, 0xab8106c733290207U, 0xfd4f17bde909042cU, 0xf9010c0aad0502ffU,
  0xf48ec0607fc59feU, 0xee9c0a22d012c303U, 0x2cd7ecd0ed394901U, 0xd8d5f3d07f2302d9U,
  0x160431bb070602bfU, 0x7fb4bc36a7eca02aU, 0x9acd8d2472a3e7f6U, 0xb2fce9d5b047f507U,
  0xbebbf7fe2e3f554U, 0x81a906b07f81002bU, 0x7f00be7fd8816541U, 0x741531d682863fbU,
  0x7f86f67f7f3bff6eU, 0x81aa627f05a7ee7fU, 0xb599b34a1529360aU, 0x8181fe818f551949U,
  0x3015ddba497fffd8U, 0x1ff2bf7f0d50982aU, 0x95f0be7f815ab6f7U, 0x9bb5e906b58114f7U,
  0xce968156f27f15e8U, 0xdd7d8143a285f881U, 0x2c9700e9fac8a683U, 0xfee5fdf3b62e2105U,
  0x25e7d30d0301c104U, 0x58102ffebe0b5f2U, 0xe8f1eef5f17f0ffdU, 0x28c4f3ff2f15fca5U,
  0x11002bf6f909f031U, 0xc2dd2df31c15cafaU, 0xf017b1fa3bc8f9fdU, 0xd704e7dbb723f5f5U,
  0xc67f2412da16003eU, 0xf4c1d6fd2dfeebU, 0xfffffb8700000c43U, 0xffffff30ffffffd6U,
  0xfffff57efffff9ddU, 0xffffed8100000089U, 0x67efffffee4U, 0x1d900000b43U,
  0xffffe5eb00000824U, 0x18ffffffb4U, 0xfffffa7afffff7cdU, 0xfffff7e6fffffdb4U,
  0xfffffe8affffeabcU, 0xffffdd06000001c9U, 0x1890000001daU, 0xfffffcd9fffffd9dU,
  0x4e2ffffeabeU, 0x2523000030ffU, 0xffffce0afffffdc2U, 0xfffff321fffff989U,
  0x2beffffedd4U, 0xfffff05600001777U, 0x1bf000014edU, 0xffffff54fffffb0dU,
  0xfffffc5400000004U, 0x22e100001c9aU, 0xfffff0e800001f2dU, 0xf89ffffff68U,
  0xbc3000001bfU, 0xfffffc4800000314U, 0x28d6ffffe5ecU, 0xbf8fffff487U,
  0xc86fffff0e1U, 0x4effffffd8dU, 0xfffffa1800000105U, 0xffffff15ffffffa0U,
  0xbafffffa06U, 0x342700000a7fU, 0x15bffffff6bU, 0x110effffff55U,
  0x1714fffff760U, 0xde0fffffc00U, 0x2c00000284U, 0xfffff503ffffe7f2U,
  0x1424fffffb58U, 0xfffffbe600000060U, 0x27000014f4U, 0xdc8fffffb7aU,
  0xfffffff3fffffe7eU, 0x213e000005d1U, 0x2701e9943b01cd15U, 0xefd8410ec02d332eU,
  0xebb8fb7f64aafe1aU, 0x2f311e1ef8fdc522U, 0x695a00cd270decefU, 0x6500e0e0c9d521c1U,
  0xaefa0d961dc21ce9U, 0xd5c8bd3a1e0537c3U, 0xebe6f6b3d2201b04U, 0x48263ceaeaf1ca38U,
  0x92d6c32820f407a6U, 0x24be2c1be4370a65U, 0xebfbf910f70df5U, 0x81e7fd0bf8f301f6U,
  0x7fafe00040aebeeU, 0x101a0c1f27f90823U, 0xf1e02f71802f2faU, 0x7f2f19df416a3fdU,
  0x21ab17fdeaf0f70eU, 0xef0618fde5fded1dU, 0xe6100e07f3db26baU, 0xe6f30228fd17f0d9U,
  0x725fb141909ba0cU, 0xfd1bbdf2fd25b7f4U, 0xd10fc5102ccf25c6U, 0x1f52a3d424dae698U,
  0xd005e801d4ee22c9U, 0xfa8cfe8eac5e881U, 0xe9da076dba093b08U, 0xdfc19d2f5a0e41b0U,
  0x241e38292ef9ac9fU, 0xe61e96aee4635fb6U, 0x4f9fb0fa4f30e412U, 0x363e3091092dfc3eU,
  0x322925d9b0f316f4U, 0x5ed5234a57ee1951U, 0xc9307e10f1e0fe46U, 0x400112322cee4b24U,
  0xcce59cc419c71923U, 0xcb4a7605e1178ac4U, 0x41a630ccf0c6dd12U, 0x7aa153f29280afdU,
  0x617f0c0eddfcf6b6U, 0x14c80034f2c4eff3U, 0x260e31091cc16511U, 0xbc13dbfdc90f262dU,
  0x192e2d7c27f016bbU, 0xb615fb1fec1c7106U, 0x13ac2987d65f083aU, 0x29b507370a8135acU,
  0xffb01743edb4e393U, 0x5710f80df2a739efU, 0x4b46bd0c2635fd04U, 0xc4d6d100cd11f44eU,
  0x2e1a21fc49052111U, 0x26e5f71769c0f809U, 0xcfbe8d09f1eab08U, 0xffa14ef414f7d1eeU,
  0xf5e522e82e2a0807U, 0x1e02061425930001U, 0xe9f522f5fac81907U, 0x1613db9a43d9d843U,
  0x3bd449c30ae1fa14U, 0x1722b7c1dfba38fbU, 0x1416c24d05f20fc6U, 0x10dca7ecf0af3930U,
  0xac124af481cfe559U, 0xff06571f0f2cf3c0U, 0xb34ccfd12a243236U, 0xdddc2af84239b91aU,
  0x8261501c6173737U, 0xefecfd0ed7dc1d1cU, 0xee08eee311b6f20cU, 0xd01213313418f71aU,
  0xf003eb1002066212U, 0xe211ae06e3e226e9U, 0x1dd33153e20628ccU, 0x530a9e9127fabdeU,
  0xd8d1c9edbee4f1ddU, 0xe6d205e8250de9U, 0x40fbfaa8021221a1U, 0x56fe202c1b10fac8U,
  0xf0f7e2c5aef9b7fbU, 0xeaf35238dfece712U, 0xfeaf19d7e0cee5e9U, 0xf0d10ae88704f6e8U,
  0x51d7570c23e62accU, 0x182cba482b051e09U, 0xed7fba05240b16d3U, 0xfc410f0fc73eef27U,
  0xa270c003b8f1c06U, 0xf245f91e2ccf09e8U, 0xb4471646c9a101d5U, 0xd5cf1c0ee106a8d7U,
  0xb6f6f820000edeedU, 0x1ddc0f1e3d0a2e17U, 0xf832e41d200af2cbU, 0x7ffa3aee0842d7e5U,
  0xfa5444e31300265cU, 0x5f14643501a15f0U, 0x13c80f2704f4efc6U, 0x6c30463dcadf7ed9U,
  0x1a2a3af955e0f374U, 0xdb1fd016f7cc0500U, 0x2ada13fbc0eaf34aU, 0xfa0becd9e90fe8e5U,
  0xf3f41bd627ea30e9U, 0x17b84318956fffa4U, 0x13cb0e2449381fU, 0x13e81ae8e2ece3f0U,
  0x10292102f90c312dU, 0xcacb104f6970c92dU, 0x1d1b29fd631314ceU, 0xa1064a0c1bd404f7U,
  0x4b1819c612cf0b33U, 0xc77f144a000fa86cU, 0x980e52170c43db06U, 0xbcb7c472beefcb10U,
  0xdd15d9055feb0053U, 0xa01df705f155ebc9U, 0xe9fe2dbf8ff1013U, 0x51002e480ff80703U,
  0xcba200e590f7e1ffU, 0xb06b46261fb73114U, 0xe10af9e056ebe2f9U, 0xce2ef7fd1ef0120cU,
  0xee43a724de40e5a0U, 0x3fce47ee030dde3aU, 0x1b163221fe0c3a4cU, 0x2412133a2ebc3213U,
  0x1c078138df32512aU, 0x1e48f23d20f52431U, 0x27162522e027d80dU, 0x8127e2cde8fd33f6U,
  0x1000a0deafb09fcU, 0x8f83014edf521ffU, 0xebcde4fef62b1d11U, 0xe60013da16289f21U,
  0xfbc4e61a473319eeU, 0xea05051ef0e4d9ffU, 0xb3f31b1509eaaeU, 0x281218d448140d14U,
  0x21d7cfff1efecc22U, 0x5170aebcef5dfdaU, 0x2df8adda23341aa5U, 0xecd605113ac1c6f2U,
  0xca3ca90c0c40ffdcU, 0x41ad3f1d9f91c7fU, 0xb102b3319f8a317U, 0x29682400e61316dfU,
  0x382125e8c4eee003U, 0xd1eb5415f917f503U, 0x370cefcffae51b03U, 0x1f9022215c31f18U,
  0xd405dee2f6c40645U, 0x554d00c251d3c9cU, 0xf7f412152924120dU, 0x90728e51bf314c9U,
  0x31c0d0c2f13f632U, 0x535350e3728d600U, 0x2920d2f029dd04d0U, 0xc6fa27eb1afddfd9U,
  0x81fd2dd6e9f539ffU, 0xd835243d1ff9c730U, 0xe2ea41f21cf505f9U, 0xe300eef2f5f6b6d6U,
  0xa2ecf0c0d0cfa08U, 0xc3deedfceb3104f2U, 0x1101fef5b4db8bc8U, 0x7f01c7f2a6302cf2U,
  0x272bf23ec7f4c7e2U, 0x462bd010f0d23cefU, 0xae00ae10c0445b2aU, 0x4314831de00e5930U,
  0xbe6aa6381418311fU, 0x31c2f0d2949b2eb7U, 0x26e7b44b0705ee5dU, 0xdbec3ffd6c48d138U,
  0x309320b3d5703bebU, 0x41f519f7ddb64fedU, 0xc4f34115f3b4d9f0U, 0x1d3ce5e6de412811U,
  0x4810f4156e7f71d5U, 0xc9afabad1905d321U, 0x27d6cfc3db1620e1U, 0xb919f10f04dc2af7U,
  0x8f2db8a40de222dcU, 0xb711c01dd6350f1aU, 0xce92ded1f8080722U, 0x243ed7f5f71cc125U,
  0xf3f3d8d6fdaf4414U, 0xf30f1de4e1043222U, 0x437bffffec4dU, 0xffffda3d00001939U,
  0xffffcaf0fffff5e8U, 0xffffe33c00003e4fU, 0xffffe388ffffc45cU, 0x2319ffffb4ceU,
  0x904ffffdf51U, 0xeebffffca66U, 0x8d72c0b104381fbU, 0x1b33f90e971b0543U,
  0x7a102ffda120f202U, 0x8141e1de0f24fde6U, 0xb3fd5cfcfe47f23U, 0xae9bcbe041cbf7bcU,
  0xf2b13829095f94f1U, 0x111714fd8117b844U, 0x11cf0cf50d3008a3U, 0xe716b6d902741e81U,
  0x3fc2fb40bf7c8164U, 0xac1dcaf6df622f19U, 0xca272562f63f00f0U, 0xe0c30ebcd81fbU,
  0x7071ad8027fe905U, 0x39c4081df23ff39cU, 0x1cb61c2dda7faf25U, 0x32483f0119cd902fU,
  0x4001eb5aac8c2afaU, 0xd2e58181ae2c594eU, 0xb80a124d40cef208U, 0x2449e311c607c281U,
  0x1072cebfe0bb218U, 0xb65f3ec40bde37fU, 0xc48715b61548fe7fU, 0xf1fc0805fdfefaedU,
  0xd1c2f25a481641bU, 0x1825ea0c0afecebeU, 0xdee53fff1662810fU, 0x3927db13b32af354U,
  0xff1ad110f3f44e1dU, 0x3e411013ef8f881U, 0xcffecdd4434cbd2aU, 0x7ff997be99dbb92fU,
  0xe73e3f2e9ddc6f81U, 0xe20d1ef00a905ffU, 0xe9eafed8fb08e9faU, 0xe9fdf2f7f402f27fU,
  0xdddfd128223bb00aU, 0xaa2ff581443597ddU, 0x56330a53fd7f04e2U, 0xff1ad62070f1c437U,
  0xfcd52e47376009e0U, 0xb7fd81dacee1b8e1U, 0x2941c940c33e9c3eU, 0x3e1803cdbc60e181U,
  0x7b25f0b97b7f84a7U, 0x2f44dd2ad029eca2U, 0x67f83efa3538e713U, 0x1f48281d2498495U,
  0x81ee00fae0e3cf11U, 0x2d39f0ff81170bf8U, 0x90781d737f9a8fbU, 0x5744fb1726115454U,
  0x5c901f68ad4a22faU, 0xea4b45c966eb811bU, 0xf6180aebe1fa021eU, 0xb97fd2d20d41f903U,
  0x229f6813a2ac40cU, 0x74e9a2b1c4b5dd56U, 0x5050fc357f26bdf7U, 0x163d2259bef104ebU,
  0x7f44151b245fd8b1U, 0x320e0eeded4cad0dU, 0x437fca375707e9acU, 0xf51958ba082cf54cU,
  0x40aa3dcbb17fafdaU, 0xff28e14265daf659U, 0x33237fb0c828d7faU, 0xe163b3e4223812efU,
  0xe54f4a0ce5de8f02U, 0x18678162cfa9b712U, 0xc256efe3fc7fb103U, 0x3ffad5fad8fce3ebU,
  0x420c46bbe823dde3U, 0xb7fde923c14b4ebU, 0xe61d00093e87f07U, 0xd1f0ecf864b8cfd4U,
  0x20fb0600dd23e512U, 0x1016bac3812985b7U, 0x3ef815dcc0ce901U, 0xfb3bc60e2519dc0cU,
  0x262004eaddb77ff5U, 0xe6e10fde3ff0cceaU, 0xd7ae043753fc8108U, 0x1a2e1a0cec53fe78U,
  0x1d14eff3b96ce20dU, 0x380f25fce03cf181U, 0x2c2a3217216381a8U, 0x2a6b0e25e1b8956bU,
  0x8183b80a7e33d713U, 0x39d87432493fbdebU, 0x1e60def4b7e47ffbU, 0xcdd404e835a8cdc1U,
  0x224fd605f93c7febU, 0xeac226ef4eceabd1U, 0x151c7ff5dbbda12bU, 0xc458d0ca190ce763U,
  0x697c231b81ad5b2bU, 0xbdd835cd67cce09dU, 0xf706f00ad07fd720U, 0xf646edf7e3edfe06U,
  0xe82eccf22b20f400U, 0x727fc59622fc9d07U, 0x7f671c36b08715e1U, 0xfc712290bc1f6715U,
  0x9560e9b6ecfc55efU, 0x481da1632fafe9eU, 0xbc83601e9b6dcf4U, 0xd23611207f3cf9f0U,
  0x102f389e45cd0e1U, 0xe42688ea467f2226U, 0xfbce7f090571fddeU, 0x43036fb6793bafeU,
  0x8163d942f79a35d0U, 0xffc219175b135ffeU, 0xeb10c38139c2dff2U, 0x17c9cc01a7dc780eU,
  0x8105d75a24b8f4faU, 0xc7f8c56eff339bc6U, 0x19c6a8a2f4e68e24U, 0x3b13232edc7ffdd0U,
  0x9781ffdac8222f76U, 0xfe01e0dd1afd14caU, 0xdb042b0f207fdaeaU, 0x13eb5c243df437fbU,
  0xd55bed04018131d0U, 0xfdf7e1273828bfe9U, 0x7f4b0d231878e608U, 0xcd32da5bc5ef0edcU,
  0x3056e208c4f27fc8U, 0xcaa343f334dbc2c5U, 0x67223506981c865fU, 0xa753a22681e11f6dU,
  0xbc5b97870bda260bU, 0x7f34c6a9c5cabed9U, 0x677f16c997b62a4bU, 0x13622c57a7bb518U,
  0xf43a441def0353ecU, 0x24f332ff7ff1ccd4U, 0x9f36df81a3b0fa98U, 0x2235ed6b2f6fbe11U,
  0xec127fd340f7f6U, 0x1327021b0fefe716U, 0x400331c3bdf831e8U, 0xf9d205cabf897f46U,
  0xf04111b092fdd0dU, 0x656e92481c81e33U, 0xa4f087d327439ec7U, 0xa7812fd8302d69d1U,
  0x66205637a6b426eaU, 0x81ddedf292ec4314U, 0x125b8994cf33031fU, 0x2723de12f77f00d8U,
  0xecea16c3ddaee125U, 0x202996e2827f0bd3U, 0x6e30a064cefb81eU, 0xe17fc7b20a9f9b51U,
  0x237ff4f9c50f3609U, 0xa706e1d841b8b3caU, 0xf11fce7f8af5d334U, 0xe1771a0426f0f8faU,
  0xd40b0bc93d27a215U, 0x5f33900a8114da46U, 0x3cf008d2eacbfbf1U, 0xe4c8115e527e0c4U,
  0x7ff70211c6f5b721U, 0x5d12ffe8fb25e2d9U, 0xae1d970d8f0fc11U, 0x117fd908f4e6c2e1U,
  0xd20e01810bdaeeeeU, 0x3d27da28084dde02U, 0x3b8f4423f865811fU, 0x3506ff50656496bU,
  0xa8d93b028120f43bU, 0x1bf2d9d70beaf3f4U, 0xdc3c21d2eef9d8caU, 0xc5e9d7fbdf6d5b0U,
  0xb905cd9f7f00f239U, 0x30e81107b6abe0f9U, 0xaf30f2023d5d8119U, 0x69f1c519f7bcc03aU,
  0xe40e311b933bceeaU, 0x813e2c6ec66117f3U, 0xce0301c4cc2fe8acU, 0xd03b2a810b989e39U,
  0xe06193314ab6ed0U, 0xccc57f4f12f02f01U, 0xc3e6bb81e73f16eaU, 0x5af0321b3eed55e6U,
  0xd38f0f5d1c17fecU, 0xdfc2fdde52d2e0cbU, 0xb44000020d0U, 0x1a1cfffff1d7U,
  0xa300000cc9U, 0x2de00000556U, 0xfffffe250000085cU, 0x3230000035aU,
  0x1532000007d9U, 0xfffffa5b000015c3U, 0xbe9000004caU, 0xfffff8d7fffffdf1U,
  0xfffffd9000000a12U, 0xfffffc3bffffff84U, 0x1730000026eU, 0x3e60000040cU,
  0x40500000322U, 0xfffffa5e0000107aU, 0xffffff21fffffc70U, 0xfffffc5d0000012cU,
  0xfffffbb9fffffadaU, 0x713fffff729U, 0x59ffffff2a0U, 0xfffffca200002866U,
  0x94000008f2U, 0xfffff2f9fffff0daU, 0xfffffc890000073aU, 0xfffffe9c00000614U,
  0xfffff6a70000083bU, 0xfffff9c0ffffff44U, 0xdbe0000159cU, 0xfffffa4bfffffb69U,
  0x145afffffa41U, 0xfffffa50000016dfU, 0x1030000038dU, 0xfffffdd7000007c1U,
  0x816fffffcc5U, 0x6baffffe956U, 0xcce00002ec6U, 0xfffffbd7000051fbU,
  0xae3fffff4e1U, 0xffffe71100000732U, 0x14fc000008f8U, 0xfffffde0fffff6a6U,
  0xfffffab1000003c9U, 0xfffffe440000121bU, 0x4b4000000b7U, 0xfffffea700000206U,
  0x2a2fffffe31U, 0xfffffbbc00000221U, 0xc8b2f5fe4d430b3eU, 0x9facffafc2bc645eU,
  0xd31335c457f5898fU, 0x16b92ea7270f106aU, 0xc193f4d5a96607fU, 0x39a335a2623bc068U,
  0x3fde8ad243b45b6dU, 0x57ab307feccae8c6U, 0xf363cdc62a81676cU, 0x7f41a149adb0bd2eU,
  0x42b72d812063abc1U, 0x5ceb3b6a3113d98cU, 0x84d8cfd7423eed81U, 0xa181b8850bf0677fU,
  0x8b7945b73fd78181U, 0x527fff19437f373bU, 0x81296a56525d5376U, 0x68b34ee565562372U,
  0x44009fc572310a6fU, 0x7f387f69ddb52cfaU, 0xe46cb98146947faeU, 0x6a15812981a2b97fU,
  0x3d90750d227c65c5U, 0xe6c433685d6ebdf9U, 0xadb9f9ed1a05f8e6U, 0xd0b6fa8b40f43637U,
  0x8b5b26d314cfddeaU, 0x3abade31275d219aU, 0xd7133b141659121eU, 0x1af724e52a433121U,
  0x1f16e8f62c23c5fbU, 0x28266511e7da51f6U, 0x328cfb527e02ce7U, 0x5ecdaaf2cc912ae5U,
  0x18a4736318236915U, 0xebfa18683b4cd24aU, 0x8d96cbb4b9768c3dU, 0xabdec399b181703bU,
  0x81e3458177aa8b19U, 0xf6ac7ffe5b042ef3U, 0x3f306e607d817f60U, 0x258142817f81817cU,
  0x5934818f4d817f7fU, 0xd81696bbac08b95U, 0x8b7090ac59aa247fU, 0x3a7f8b7bd9bcae75U,
  0x5ecc0498727fd391U, 0x7fb9597b54999d84U, 0x8181b481887ff089U, 0xb0a5818163917f70U,
  0x867a7faa7f828125U, 0x7f65497a7f787f7bU, 0xf87f7f7f7f2d7034U, 0x7fcd7fac7a87237fU,
  0x7f34a9817f300952U, 0x26f76d6b818b1181U, 0xc87f819c7f94d80dU, 0x26298267cc848167U,
  0x7fe27f337f7e8881U, 0xe0897f7f7f37811fU, 0xbf929bb289321a02U, 0x9adef7937fc4451cU,
  0x947f41de2487bc11U, 0x5eb6d2603f493810U, 0xd01c3a1e1e531b10U, 0x28f725ab2bdc592aU,
  0x2d0e9dd22c2fb2dbU, 0xfd262420aed24ea7U, 0xe21db4a535fabec7U, 0xf0c49a50ca8121bbU,
  0x37dd4c54342df4fdU, 0x9eee1c47407fc87fU, 0x9bafa48d94448126U, 0xd631d1d3ebbd1af6U,
  0xaedc21e051c3fd2bU, 0xcfce53612ff23c81U, 0x210549173bc255d6U, 0xfbbceff32ea2cc2aU,
  0x2634d4931eb64e00U, 0xd8b9ee15c3dd81aaU, 0xa91da9c732cafe5cU, 0xb664be68fcead157U,
  0x3481efc3574a7f9dU, 0x5e9a1522249ff3b3U, 0xd49e81a081430ef8U, 0xf727c4c970a437ffU,
  0xc90a69cc6f81d152U, 0x2a573b7f42ee3502U, 0x5c1d253049d447abU, 0x26c0308e2c900d3bU,
  0x353ca38a3418fea6U, 0xc2e2e226c781139eU, 0x81298fc440e49133U, 0xae00d47f08b4c61aU,
  0x52a71c16632ccf93U, 0x1d811f351fd7ad31U, 0xe1dac7b8c02529e8U, 0x813118d73a9931f0U,
  0xef2e42e524b1d106U, 0x39e7d94011f3ec3dU, 0x30d0b19151d1af0U, 0xf5e61da02306161fU,
  0x1881cfd00b28b3bfU, 0xe528eb17d9c360beU, 0x94fdc2d40c21e7b2U, 0xccccd952d0b52bb2U,
  0x33d4fc292d1d87dbU, 0x9bf1e5321257fc45U, 0x205d00000242U, 0x1585ffffe69eU,
  0x18a20000393dU, 0x3a5100003b4dU, 0xffffdbde00000190U, 0xffffffd3000043b5U,
  0x285300005e61U, 0x229900000f63U, 0x39e2ffffff92U, 0x1100004b69U,
  0xffffff8100003599U, 0x32f4fffffa77U, 0x4ecfffff97cU, 0xfffff28a0000003fU,
  0xffffff16fffff9e8U, 0x22fffffb5bU, 0xffffff58fffff0b1U, 0xffffffeffffffcf6U,
  0x2a000002b9U, 0xfffffda1ffffedf8U, 0xffffff54fffffe9aU, 0xffffff9600000d00U,
  0xfffff69c00003066U, 0xfffffce9000021edU, 0xfffff1cefffff91eU, 0x539fffffef7U,
  0x4c20000042e3U, 0x110fffffeb9U, 0xfffff01200003586U, 0x392500005354U,
  0xffffcaa1000000d2U, 0xfffff19d00000fc0U, 0xfffff633ffffeea0U, 0xffffe87d00005114U,
  0x4afd000031c5U, 0x281afffffad2U, 0x1660ffffd47aU, 0x1dc4000066a1U,
  0x6053000002c8U, 0xfffffe54fffffb15U, 0xffffffd2000044ffU, 0x33ffffffa2U,
  0xfffffdb9fffff74dU, 0xd700003ae4U, 0x2fa1fffff9d8U, 0x830000007bU,
  0xffffe10bfffff500U, 0xfffff53500002fd2U, 0xf6badfee04fbdf0bU, 0xfcd2221fff22f544U,
  0x1efcffb21dfaf4faU, 0x701e30b52f0def4U, 0x1b0c03eeef06f6U, 0x3515d4d6090ef91cU,
  0xfe0630090a02f202U, 0xe1e914df215117c3U, 0xc4c0f5fe81defeffU, 0xf01450b3f8eef813U,
  0x9f3cd1403d5fccaU, 0x2916ff34f80827f7U, 0xd3f107bbeae805b5U, 0x1fffe9ef6cfb9ffU,
  0xddf034e60925e7f1U, 0x4e2053718fa1220U, 0x5b21814e9ecd904U, 0x12e300db4603fce2U,
  0xfff0f9057fe6e8daU, 0xd2071af313db0adcU, 0xfbeaefca5d1fe5dfU, 0xc519de0e4eaebee9U,
  0xec47dc08f419e436U, 0xd9dd9a3bebf8a2f8U, 0x9d2400eee5deb500U, 0xc51538dfff2decdbU,
  0x92bbe6a7f2ca140dU, 0x38fd32d50c39bc1bU, 0x17eb5158b30518ecU, 0xdbe4ebe802d40e81U,
  0x5e021501180f09caU, 0xf2c10fe927fce305U, 0xefd8d5fde808061fU, 0xff04e9142503e29aU,
  0x5f81bb32c02271dU, 0xfcadb1ae73b0410U, 0x28d52e42a1170fd4U, 0xd6a72b656810ef40U,
  0x16d5c3eeceea27faU, 0x10052c1e2b2adfc9U, 0xbcbb4cc3150129d5U, 0xe147c28109afe12aU,
  0xd70eb4b923e5cb12U, 0x21fc16c754cb4204U, 0xd0d75f122ce018eaU, 0xe6503aee1320f4c8U,
  0xf6f3cd2e2beececbU, 0xf812f1e8e4e519e2U, 0x5ad4f6f9d7eef704U, 0xa3fc18e84ee5fa10U,
  0x1ebc3df61e81ed2eU, 0xc511fc35d1f8fafdU, 0xf2081c093dd624f7U, 0x1e7fcafbff7f41eU,
  0x20f40916010c3217U, 0xeaf80c9cd936e8ccU, 0xf01ef708f5cf44e3U, 0xf1552ae3e49ae4f0U,
  0xe7f7fe0a8cff2207U, 0xf1070300ed27f523U, 0x1b20450414bc2d81U, 0x19e2ebdbfed8eabfU,
  0x1f7d707b0f0ecd0U, 0xf712effcc44329ceU, 0xd0d5fa0b6727d305U, 0xed0ce7d2ec27dfe8U,
  0xf8f615f71f084719U, 0xd508f908d7f0ce03U, 0x21320718f8400818U, 0xe2dfe1ed28073b08U,
  0x74039ecea21fb25U, 0xe91fde19cc1fc235U, 0x2633ba4127b1f309U, 0xc50a28122434dcdeU,
  0x15fcb408efd801dcU, 0xfd090b5dd003f637U, 0x54dc64bbd83df24dU, 0x312ce0da05cf00b7U,
  0x4ce4b38be31fba52U, 0x5ad047076d064277U, 0xb01023c3dd23f2fU, 0xe8deec174cd8cfcfU,
  0x7fe2fbda14eb24f0U, 0x22d20f190ad30acaU, 0xc50626e6e76415bcU, 0x26d29bd3c14d72bU,
  0x29e31af61d110b91U, 0xcf22d00608a6e2efU, 0xe83e24fcaef10dacU, 0xd6e9c7177ffcaee1U,
  0xaadf86430064ce7U, 0xf4d2b0f8e25b43f1U, 0x2531e42f137cc1cU, 0xe8ce54271e14542dU,
  0xc91d261cafa4a40aU, 0x41223f540ebe251dU, 0xb22f3fa654ad8b0U, 0x2f606d824590e20U,
  0xf5f314010cd6df42U, 0xffebf0fe1528e423U, 0xfe23ea93bd0902f4U, 0x14d11aeaf97fbd1aU,
  0x233fe71fee180714U, 0x620ee1824e918e9U, 0xfde8cad5ff4dfcdeU, 0x20f809fdfe0573f1U,
  0xd5f9f0e029d547d2U, 0xd9e039f9bdfd20b3U, 0xfefd17e4d6f89344U, 0xe901e44a0517f042U,
  0x7fc2fdce0122faadU, 0xd61acccfee200505U, 0x1c160fb31a12ff0fU, 0x1730013cdc5dfa15U,
  0xddd50dfda9cbd10bU, 0xf733cbe0e03df6e2U, 0x1df325bee12fb725U, 0xd82061ba141958eeU,
  0x22cd05bdfcfcaff3U, 0xc6191927423f0c0cU, 0x8fdbfc2fd93b0bf7U, 0xc37fcffe04b64edcU,
  0x2b162143dacefc36U, 0xfb4f42e4e61c243fU, 0x413cdc2ffdfba09cU, 0xf1a653393300dcf7U,
  0x9f32fedb08f8faa1U, 0x524f2c21e7de2c36U, 0x9fce3bc41333e3eU, 0x61f2f62fbfe0ff10U,
  0x120adeeb59202300U, 0x1bb71dcdd2719e0bU, 0x2c4157097f380954U, 0xda5bf12a250231c8U,
  0x26f0d023fbf9e008U, 0xc9cc35f2fa3d05d9U, 0xdf48dedc16f62ef3U, 0x41b0213ced131eafU,
  0x11041e1af3ed0612U, 0x10eff73b01d3ce02U, 0x341bbcd30d21ffe2U, 0x3f20f9fdcc2bfc13U,
  0xd2fd13ebeaeefe1bU, 0xc5e1100ef4e5ed0eU, 0xef10bdfd95c1f11dU, 0xbb813cc7252626f8U,
  0xc4092ce0c2ce1506U, 0x9253490d2ff0b19U, 0xf7fae111e0161ef1U, 0xc92810b017bb4bcaU,
  0x1214ed0fac4e3414U, 0x292bb6f7d40dfcf6U, 0x154d1009f5e8cd14U, 0x190417300be744e4U,
  0x2bde3e3e200bc4dU, 0x25fdfcf044e0dcf8U, 0xe697da1938233677U, 0xf6c1fbf70d0f4d26U,
  0xfd0be3e9e83cbce5U, 0x19041add1819dfecU, 0x1b37de3fd2ec4523U, 0x11e84abe17366109U,
  0xa20fb405314c41f2U, 0xf7dff4e720dfd5beU, 0x98e8b307f1feb11aU, 0x2d2d53d1beab0d1aU,
  0x3fc1d24912be24f5U, 0x20b6e808bb1181d3U, 0x2bfb07e2ed1dec0aU, 0x174ebcf3d9ee0bb9U,
  0xe4212bf7bc41c919U, 0xf1090317f7d5ca19U, 0x8391ee5302115c4U, 0x45cba909393fdb38U,
  0x41c11e7d9fcf30bU, 0xea2ddfe610f8fbe1U, 0xfce4cbeb1615fdffU, 0x4f009f616d3e927U,
  0xe2fae91df77f0de9U, 0xc61d142cf7ddea15U, 0xedf537d145bffdc8U, 0x2139e8e70bd694efU,
  0xf7e716103e043c07U, 0xcddf2605f6e8000eU, 0xeef120727bdacf1U, 0xeb5c0d19192c0108U,
  0xe9f6253748c832ecU, 0xe0fa03120bf9150eU, 0x1c102f0d1cfcefcdU, 0xd20fea1926edea21U,
  0xc37f1520eb0d12e4U, 0xb0b8f808af04d7d0U, 0xffffe31000002f64U, 0x8e5000033e2U,
  0xbe3000025c6U, 0xffffb7e0ffffd1e2U, 0xfffff4e50000002dU, 0xffffd1bdfffff61fU,
  0x29bf00001be5U, 0xfffff14200002b45U, 0xc4f348f037f8fb7fU, 0x4e59751073abbdcU,
  0xcf2318e3dfce3728U, 0xd2b2d071cf8120edU, 0x7f5dc6a831750807U, 0x37663ac6455c9f34U,
  0x2e25cbf72d219ed9U, 0x413d0813a4d0939U, 0x98a90c292fd07fc7U, 0xe6a4061dc6bb211dU,
  0xdf33bfeadc26be7fU, 0x27a69df3a4189ba0U, 0x7365515576541b5U, 0x25d81d81cd36909fU,
  0x7fc161c4ee0b3a04U, 0x7811273afdd65d2eU, 0x292ac97f340bced4U, 0xf6ff8b60a13b60b2U,
  0xf002f542ff4de1cbU, 0x3bc40f29a8147f0bU, 0xe97006109c9b5e7fU, 0xda30b453c3332f7U,
  0x15defcc45bb05fdeU, 0x813c21faac10ed12U, 0x2a02e11df621f628U, 0x4b81f6e31104f216U,
  0x46dd0e23a2cddf73U, 0x17451a815b325f7cU, 0xcc578129004e732eU, 0x5ae7af62e6d3d7e4U,
  0x2bfadee96d7fa340U, 0x49bdbf1ed5edf5eaU, 0x2ecefcf5130ef0dbU, 0xddaa32f2b3fb8114U,
  0xebdae6812d01b473U, 0x57b7ee54b00dab8dU, 0x67917414ae5dd59U, 0x7fabbeb9dec2b7fcU,
  0xd3be7fdc33ecb64aU, 0x650f5c5c0cf2cabfU, 0xe9b27f9206f504d5U, 0x3760f852d093ddc3U,
  0xcefdd2e82fafc13bU, 0xa519ed81ed1d0ae6U, 0xdb0cd7e4e95c7ff6U, 0x44ebf20bb742faefU,
  0x26bc91819fd320faU, 0xd202d3ccc565acddU, 0xfc3466632dd0fb20U, 0xe05dde27a17fb0d2U,
  0x22b80ecd44dd1adbU, 0xc4de0f1af6e47f1cU, 0x23240b67454633ffU, 0x7f04b79dede3eff3U,
  0xcdc556574a117f28U, 0x4091133427120c0cU, 0x2bde4af1931b5893U, 0x59390eaa7f79d236U,
  0xedfebf08ff0f81f3U, 0xd392f1f8080ebaccU, 0x5447818fe8e30568U, 0xca3a04d51715f743U,
  0xf6a6e57f33d9b09dU, 0xceb8195982f5c6aaU, 0xf481d712d3f3d2edU, 0x32bd4d20aa1825d6U,
  0x3c43f18130126414U, 0x2e5efc8f16d6cf1aU, 0x78ecf922d411cfd5U, 0xb8197f50da01224cU,
  0xe929f0eb0fe5df17U, 0x531bf69ba8a0eb81U, 0xf51325ec05ea177fU, 0xefbe2341d1be501U,
  0xb5d263c4d3bef4e1U, 0x3388df9ff813dd9U, 0x1128d215603440a5U, 0xd87fc814d0d63d23U,
  0x14b938f8d267dbc6U, 0x1a10bdaddfb64e81U, 0x39200ff97ff2dfebU, 0xf217d1deb4e4e203U,
  0x15f4eb81b1123519U, 0xb092718aa22dceaU, 0xf2b8fb52318ed0f2U, 0x7fe220caab2841b2U,
  0x7b411558cb9f48c3U, 0xdb7f3a83641b75f7U, 0xf77f6c160835bad1U, 0xeb29d37498a323bcU,
  0xace845b9e4e5c2daU, 0x534acd013f81eba3U, 0x709207fb2653922U, 0x28c7ccfb39d2f1e7U,
  0x7200c536dcebea4cU, 0xb1c81cb2b5426fbU, 0x2533b73e5c5b412dU, 0xf1cc01e481631a00U,
  0xe0fdf80a2f7fd8b7U, 0xbe7ffe1c8e51216U, 0x92deb2a6b4f3e121U, 0xf51ae7478137eae3U,
  0x3a097f6b28ef2200U, 0x26aff7fc35c53d01U, 0x22df6b7ffaa7eadfU, 0x2bbb62fb263b34d5U,
  0x1e7dcf1d2cf9c948U, 0x47f58121abd106faU, 0x2cdfcd185fedb6e2U, 0x2ed638e281181ca0U,
  0xc38130ea2b78a46cU, 0x1b2c6509154707d3U, 0x2831fd15b9b57fe9U, 0xef1702f702dc200aU,
  0xf8d81046a854c309U, 0x32c4faa281febd0aU, 0xe51d195b3853af50U, 0xeee839e988e49581U,
  0xaba38138f7e7f7b8U, 0x33c7614df0ee57cbU, 0x5031ff9ececf7ffU, 0x4819810bfa0a07e3U,
  0xc2f44fffa3f5ea18U, 0xd1aca97fe79c3fffU, 0x5619f6de133ef7cfU, 0x23292bef7f20e635U,
  0x1b1dfb09fd0d81f4U, 0x260604f5df08f9f7U, 0x590214e8f5dedb29U, 0x4a00de816115320aU,
  0x6d24222822fa25d0U, 0x2af315bab98d81ebU, 0xe7f6ece329ea6e81U, 0xd1cb0708d6c14840U,
  0xda39900a142a06efU, 0x8131b8a533340e2fU, 0xff6939f77f3c362bU, 0xdbf0c835a20cad02U,
  0x81056caebc1ad9f7U, 0x2b24de43f0fe30d1U, 0xeb057fe716189d5fU, 0x4a08ceb88e3418a5U,
  0x6460ec94cb40714U, 0x7f38c32f99a2c3e4U, 0xa17f181fbae7f478U, 0x20d4dc1c0212d7f0U,
  0xfee31c32207081a0U, 0xe0df7414bf0c24f8U, 0x254681e30212cce2U, 0xd679eee41129eff3U,
  0x36f010f0d5b7eb04U, 0xb41fe6f07f24ef4dU, 0xe11815ce35cbf828U, 0x4be61481a804eafbU,
  0x9bfedff27de03faU, 0x31812d38b4133ae5U, 0xfa22c62d29131f12U, 0x34bf111eeeb8db81U,
  0xc7f47f302e7ecb15U, 0xc20dcf3a07d02dU, 0xcd2ac7a47f284bf2U, 0x43e49cdfb00c61cU,
  0x8961cc69f90c1617U, 0xf6e9c6f122d4df81U, 0xd5fcf49915a63516U, 0x16da19f6f413eb81U,
  0x15508158e5e70b3dU, 0xa40c3b0724ee1942U, 0x55ced1c3feeae293U, 0xacbb5b5181fb5034U,
  0x470eed2738e8c5c7U, 0xfaf42e1381dbd1edU, 0x21c811cfd642fcbaU, 0x2ede7f1b3b0e257fU,
  0x7e4ef0a0b2d8881U, 0x12342e9cde1f700U, 0xd02c00702c8bdeaU, 0x487ff222fb0147U,
  0x1f3e440e202b8111U, 0x26fec7d8e3dd3f05U, 0x467fc5ae08fb4bebU, 0x18067d29bccf52f3U,
  0xd2193c7f57fafd00U, 0x4909e6172628031eU, 0x3ffce612f7163716U, 0x281181fce6b3fb23U,
  0xd62abe811512ead4U, 0x9b6110b340070f05U, 0xe3ed1a023b57d0faU, 0x3c8bcb5dc51f7f18U,
  0x9f13fcb37d487e3U, 0x2ef0b8165584bfcU, 0x123c000005d7U, 0xfffff7d30000034dU,
  0x13ef00000768U, 0x1354000003a8U, 0x10e8000001eeU, 0x18d000001012U,
  0xf760000012eU, 0x53700001e86U, 0x7dcfffffaa2U, 0x8c0000002ddU,
  0xfffff5430000037bU, 0xeb700000a20U, 0xfffffceffffffe6eU, 0x1085ffffff63U,
  0xfffffdfb0000243fU, 0x4fa00000514U, 0x131bffffff1cU, 0xfffffaff000025d7U,
  0xfffff315fffffc59U, 0x555000001faU, 0x956fffffd85U, 0x2034fffffd05U,
  0xfffffbb1000028e3U, 0x2ad00000d98U, 0xfffffb820000059eU, 0x46b0000322aU,
  0x87000001beU, 0xffffed88fffffd00U, 0xfffffbf1000014c3U, 0xfd00004ce2U,
  0xfffff5c20000036fU, 0xfffff7a0000000e5U, 0xdd2fffffa3eU, 0x76400000860U,
  0x96f00002432U, 0x7cfffffe3eU, 0x80200000b75U, 0xfffffca100000581U,
  0x17a100000520U, 0x7e7000001f8U, 0x1580000002eU, 0x46afffffaffU,
  0xfffff6fc0000091aU, 0xfffffbb400000fb2U, 0xfffff04f00000d02U, 0x6a90000210fU,
  0x38e0000022cU, 0xfffffb1900001046U, 0xdff436ee0512f4caU, 0xc6b938cd6601dd1fU,
  0xfd8111f651e517e1U, 0x7fc2f92715c6efb6U, 0x34031e0cbdf7e060U, 0x2d0d8e6efcce3e6U,
  0xded250901d2263fU, 0x1ce43336050e70faU, 0xccd6812901f50b19U, 0xc607f8c31b2ae3eeU,
  0xdb6d5f60f45fdfbU, 0xf0f9ee249681f3deU, 0x5e9181b4077f8116U, 0x957fd627aeb63e45U,
  0xef227fe53c438113U, 0x8b177f81f7b76a7eU, 0xeb279703c07fc047U, 0x56da7fe47f7fe381U,
  0xf3f87f81c0b17ff2U, 0x3c037f81d6ea7f81U, 0x1a8f1ace81f4af63U, 0xc7fced7f73027fcdU,
  0xd292598e7f4281ffU, 0xefec424ddeb10764U, 0xeb141fb0f2e4eff6U, 0x51d548f9f0f91af0U,
  0x27c20fe745dee82eU, 0x4303e62a0bc61d95U, 0xd81e3a0010f13620U, 0xef1f0d14e4eef4f0U,
  0x10ee1db2c239ed1aU, 0xff100a2cd841f30bU, 0x1ffdb7f904efd113U, 0x8f302d832213fe4U,
  0x3eefacab2f904ddU, 0x7f403052a111502U, 0x160b21812b19b725U, 0x87a581dc172e1d2fU,
  0x33002fd8ec7ffbf6U, 0x958145bcafdaec0eU, 0x7f2658fd07144841U, 0x54cd9bbadcbf810bU,
  0xe6e42add7fd301U, 0x4bb1414718126e8U, 0xc70fe07bd10d7f0fU, 0x7fea03c5610025dfU,
  0xfe8881814a7ffd38U, 0xf7f81036414f699U, 0x7f7feb74816b4b5fU, 0x4376ca7f817f8181U,
  0x7f9e267f20f64a81U, 0xf9531ced9dae3079U, 0xb4a57f7f9fa781e2U, 0xff860501ee1ea1adU,
  0x7f81aa8681cbc37fU, 0x7f63d69eaef5a800U, 0x947f2081df7fd481U, 0x3f7f814a81818ee2U,
  0x7ffa7d1947cf997fU, 0x7fcc4b7fa5447ffcU, 0xfeb20622af3c5c8U, 0x7f0ba7d7053c60dfU,
  0x43b8130e0603c458U, 0xcc7638bc8141fa81U, 0xd822040d7f0a73edU, 0x1c5ff07f113808fcU,
  0xfdd5f7aee4cced42U, 0x117f246f214ee8efU, 0x7fefcdffe4fa10eaU, 0xf9e8fcca4134c6e9U,
  0xffafbe17f6e4ec05U, 0xead3fbed1314f37fU, 0xbde303a3179ce8feU, 0x23115c0a4e3c0559U,
  0xfe601df1da0f0fdcU, 0xba2117f5178d35fcU, 0x4518ecfd061613e2U, 0xef02d9c71410df3eU,
  0x24cec07c05df7daU, 0x5df09307fa612e5U, 0x2002ab271d013347U, 0xe50212ed1fe40508U,
  0xf8a0f4e409f61308U, 0xdf1addeb7fb43897U, 0xdd2a5d78c3e4e581U, 0x9bdaa3b54b35a7abU,
  0xe307cfe581b06209U, 0x2535ba4977f7ff8U, 0xd08172103dd7af81U, 0x8181faddc784ee66U,
  0xde45de41c6ed06d1U, 0xe54314d1ee0bc2aaU, 0xbb03bad252f4ceabU, 0xd61a5d0cc599087fU,
  0x15814c23e805f2ebU, 0x3dc35570c0af06f7U, 0xaecd0e4213b0c11bU, 0xcdf136e3e6033be9U,
  0x170019f0c5ecf4feU, 0xa8fe0b18063f38d0U, 0xe343cd0548f14a1cU, 0x181e07370e03ca22U,
  0x136f6be07df06b9U, 0xc141650104aee08U, 0xfdefd60df504eef8U, 0x180e0bf326181e28U,
  0x2f7c278e71810e9U, 0xd8f620e102f9e323U, 0x1cf900000018U, 0x9bffffff9bbU,
  0xfffff74c000004a8U, 0xfffffd980000099aU, 0xffffff70ffffff91U, 0x49ffffe735U,
  0xcf300000179U, 0x7e600000446U, 0xffffff51fffffd6eU, 0xfffffdf8fffffee2U,
  0xffffeea4fffffee6U, 0xffffe85700001840U, 0xffffed020000009dU, 0x23a900001095U,
  0xffffdeb8000019d3U, 0x1899fffff47bU, 0xfffff37000000262U, 0x2bfffffceeU,
  0xfffffab6fffffd06U, 0xffffff49ffffff90U, 0x1e6cfffffe4cU, 0xfffffc7b00000015U,
  0xfffffe22fffffea0U, 0xfffff8c900001686U, 0xffffffe2fffffd44U, 0x23f700000870U,
  0x37b00001dc2U, 0xfffffbe000000632U, 0x9b500001e6bU, 0xfffffe2600000a07U,
  0x18cfffff7d7U, 0xfffffae6fffff152U, 0xd80000008fU, 0xf7ffffffb62U,
  0x1f4bfffffef6U, 0x5e5fffffeeeU, 0xfffffba0fffffda9U, 0xfffff4e200000426U,
  0x8d000003b1U, 0x37fffff6ebU, 0x14a2fffff195U, 0xffffeffcfffffb84U,
  0x106000002cbU, 0xffffe60a000037edU, 0xfffff996fffffbb3U, 0xfffffdf700001795U,
  0xfffff36dffffdc5cU, 0xfffff80e00000010U, 0x20addbfbe10f042cU, 0xdcf03e91f1fde12U,
  0xf2be00cf107fc21U, 0xfb90fa16fde13fe8U, 0x1619edcb0aec0efeU, 0xb915fd09f7ece313U,
  0x63609a1f30bc005U, 0xcd2e0026423d0701U, 0x2af4de20ccbddfedU, 0xede608fc11c6dd13U,
  0xc70bc1fc81e8200eU, 0x1a1a33baec1fceb0U, 0x14dde32304d36793U, 0xded2f7e52910ef04U,
  0xd509480f039f0056U, 0xf00021ff29d839daU, 0x161e55b80ce21605U, 0xfffc450eb5f3290eU,
  0xaa08081dc7350e11U, 0xa1a2371f3087bd65U, 0xcec9cce2db2405feU, 0xfa90f7c35b4bd835U,
  0xe714f226f6fc481fU, 0xcbe216e5037fa130U, 0xb50cebf618c143f1U, 0x7f59eb14edcd1fb6U,
  0x9123202a0de40deU, 0x58fb0cf32050da09U, 0xedfe1f0a0bf1d8U, 0xdfd08e045b7f7ecU,
  0xfcbb101d241c13feU, 0x23e41be1bc1358c5U, 0x73300dce8fdf341U, 0x18c8f3de52e519c9U,
  0x46e7331de8dbd2d0U, 0xcc9ee21fa2ce8feU, 0x1fd1222ffa0f0ef4U, 0xf0812cf8c6329ee4U,
  0x2f38cd9acb690a31U, 0x19f2c8b504ed215eU, 0xdfd1e54400c94918U, 0x11cee5eaee310833U,
  0xc10b5cdf62bb8c5U, 0xf128e713f32be025U, 0xd5e2bb2dbfbb0122U, 0xdc1abd2a1b2bbe0aU,
  0x30c70439010c4ce1U, 0xd824e0bf240d42dbU, 0xab1236eb1f0357f8U, 0xe7c310ee03c42d07U,
  0x177201d3f3203106U, 0xcc91b09bb5eb723U, 0xcbd64b10f7171d0eU, 0xee1fc606f1de7fb6U,
  0x9c8c52b2de010b6U, 0x8fefbc0b6fddf06U, 0xc42b008b072b0519U, 0xf2defa051b221bd2U,
  0x4eac25dbc1cdb7c4U, 0xf09c433cc2ec39c2U, 0xebddd2dd140ef60dU, 0xe9e9defc2fea1bf2U,
  0xbc8fd1eef07ddfcU, 0x1f2f113afcce1b08U, 0x3826ebee17d90ce2U, 0x13d93060bff536ccU,
  0xecbd09fa07dd100dU, 0xf8f3060ef5230505U, 0x12272afd32f4f8c5U, 0xf91d81edfc0fe5b3U,
  0xe205fae627ead410U, 0xdb09351c29f20c29U, 0xe6ffed0ec1d258d9U, 0xad38e0153fe8dd0dU,
  0x25ee27db293525b5U, 0x4c0ade1924befef4U, 0x94d40c39d11a0bdbU, 0x3337c3d30b012f7fU,
  0x49d20e32179a17b2U, 0x3df6a7b3b3bb07f5U, 0xb81f3e73221c48e1U, 0xe6ede2e82aaedbefU,
  0x46e7c8cffd0501e2U, 0x1db59022e6da7cf9U, 0x10e422010500feb9U, 0xf2f40e2426ddc9f6U,
  0x3b311f0cd8bde1f2U, 0xbabc14de3a090c12U, 0x19e5dab8158105c6U, 0xf16326f2d301f2f1U,
  0xc9f6d238d90ccfdfU, 0xd2c91535f526cd5bU, 0xecd600dfe0c9f421U, 0xe8f8d91bf713e1d7U,
  0xf91e171807fc60faU, 0x55cff0261937f70dU, 0x3b0321b48f0dcaf0U, 0x17210617e1d046ecU,
  0x18d7e2c108501425U, 0xf9fef6caf5cbfef9U, 0x98e2fb9165e0c7eaU, 0xfc06cb24e3c8fe16U,
  0xff1a7ffbdfc52af5U, 0xb5c9e3a5d46ae61bU, 0xd408eaeb2cd4929eU, 0x45b922e5b6f052e0U,
  0x9e68ff393418a94fU, 0x5dcc97b8bd3de8a4U, 0x140310f52d19d789U, 0xc71e511bf0e463e4U,
  0xe9b4a8c2bf0fdadfU, 0x20da72e94e41b9a0U, 0xfcfdc6e5edac2d6fU, 0xc63a0350b17f903dU,
  0xbcfcd108cf2dff69U, 0xeb496404f0306063U, 0x8c63b71d1ad041dcU, 0xd6feccfd130bd6f3U,
  0x3fcea8fd8784e03U, 0x6961640211632ebU, 0xd3016b3f605b6f4U, 0x9e9d7f93b102bbfU,
  0xaab929313dcd232fU, 0x7f02ab30e224fff1U, 0xfb4c4f1d24432057U, 0xe23e1472c74063cU,
  0x1a0fecfcf023a104U, 0xccaf9f6f527f74aU, 0x242ff9e9cba9adf5U, 0x1cc21af9f72b07c7U,
  0xeff91711215423ddU, 0xfab0dfd630c3e227U, 0x4c4b40369c07a405U, 0xee0fd1353d01b87fU,
  0xbed64a24d907c761U, 0xe544cec89ae62914U, 0x562c25b8251ec124U, 0x2fd72f1df7dcc949U,
  0xf4363ff29c20e63fU, 0xa5f3662708d21904U, 0x13c8c726a3dbd304U, 0xc0b3f88e00cba18U,
  0xc53de1e10e0cea02U, 0x136609e308d604f8U, 0xfd1246adbe112225U, 0xbdaa369eede2a0eU,
  0x10f727f030131127U, 0xfc4a20d7e7fc9c0bU, 0x7f6cefa07f9023cU, 0x2dbeb2f332e1e6f7U,
  0xeaf6bb06e5c5fdf2U, 0x5f803df0ddd1009U, 0xf1ff0339ffe71d0bU, 0x7f2a02d20a0b35ddU,
  0xff1b43e21ccd31a9U, 0xfc7222f058ae26feU, 0xe5cea92104c85c0aU, 0xf8eac7320feded2aU,
  0x1afddde01501e810U, 0x7dae3b8f608dd14U, 0x9628daf0e7efef1dU, 0x46d2eec0b627fdc1U,
  0xfce21b140aac09dcU, 0xfd02c8cbd9f14f1eU, 0x3afc4731f8cedacbU, 0x272bbe0811f81fddU,
  0x24181a0dc23401c4U, 0x28f05ff1d8f2f981U, 0xc9f91ad6d11492e2U, 0xba0e49a3b9ae1919U,
  0x3bdfd904a3e1b401U, 0x10f190575e52a2eU, 0x20c02faab833fbfaU, 0x91f18f6db1252efU,
  0xf49ce1cd7fd917f4U, 0xd524f91dfa9c22faU, 0xa04223620bd2ef5U, 0xeec8cc09d3f5ebaaU,
  0xd39725caee1607efU, 0x1fd4d60419fdfefeU, 0xe322e80521b63ceeU, 0xd1d2ed08f4d902bfU,
  0x91d002bd729f1caU, 0x152c7f1a0b1e1216U, 0xf9d609beba06e8e1U, 0xec4e79edd03230fU,
  0xfdf8f01913d107fbU, 0xd30ed2fac9eb414fU, 0xdb3c3b9718b556c6U, 0x22e7e135360bfbd4U,
  0xddf2b5dd22ea4f0aU, 0xdae646361e1c152aU, 0x28ff00005681U, 0x1293ffffc6afU,
  0xa810000132bU, 0xee900001b22U, 0xffffd89b00002eb3U, 0x2108ffffea8eU,
  0x216efffffd8cU, 0xffffefdd00004d08U, 0xcdd74ee781ff092fU, 0xfac1641aea1cf61dU,
  0x28ec1e08d3da050fU, 0x2be816e3c11f1481U, 0x5b815eac38a126efU, 0x2561d1e23238d53dU,
  0xc34d553109f0eceeU, 0x437f0fdc972643fbU, 0x165f1725ea7f00f9U, 0x2d452a150e146cf6U,
  0xc8272657cdccfb07U, 0x151bddcacbde7f7aU, 0x9e60090612f4f609U, 0xdeb1ff83ed001b81U,
  0x2508db041dda7ff4U, 0x31fef2daf031402bU, 0xaa0dd10917a905d6U, 0x566cf801bb816f05U,
  0xfc987fcadf310069U, 0xda1d2087209e4863U, 0xd83fad090d5bea04U, 0x2b24fa7f33ec09ceU,
  0x1e0a11e0144d8181U, 0x7711ed13d0054d5eU, 0xc9a9f6f6d81dae3U, 0x514e113da8d2fc0bU,
  0x57d6f24911dd18caU, 0x14fd0c138df81781U, 0xe956a3d15671f1fdU, 0xed9835d281ce0bf4U,
  0x4ab0b47fe7aaf2daU, 0xf824e9dca4f4d605U, 0xd82c231110ea1c27U, 0x1b59d8ed267f0b4dU,
  0x818e117327030f4U, 0xf0d4b7fc086ef16U, 0x1f56bba7b757ed2fU, 0xff8e6388119ce46U,
  0xad74da25d6df9d13U, 0x747bfd7ecf6b3581U, 0x9a69ea2f0451c299U, 0x810b38eaf5f4c5ebU,
  0xdc10afded508f334U, 0xa3b4814455f136d0U, 0x2bd7ce33d94cf707U, 0x7fdecdbbb393c21bU,
  0x11e67f6c0d0a18feU, 0xd1e857ae0102e416U, 0x81356e2bedfddc5bU, 0x73e6f8292df6e79bU,
  0x9a35816add1b83aeU, 0xf0c52dcfcbd7d288U, 0x1c070777fcffec0eU, 0xa7ba12f9b3418107U,
  0x3381b539d724d004U, 0xbdf40cec333ffd13U, 0x49d325ecbff2fd15U, 0x368112afd5fbb31bU,
  0xd200f544be48ecf9U, 0x81cd37ecf047c0fdU, 0x90c9ce4b8124c802U, 0x4df50703b128bbb2U,
  0x7fdf9d195a18e49fU, 0xbd83576d9954a14U, 0xdb0216fe0c10a47fU, 0x1f00ef1f172fb8dfU,
  0xdb98493fb0bcfdf4U, 0x1d164b0681ca96b7U, 0xc9600c57963ecd9U, 0xafa80de58115facbU,
  0xb91560524f81e4e9U, 0x2e0029f52fb63902U, 0xc22fee1a3f0208f1U, 0x507fb1fd2b010c12U,
  0xcedbbd7fcdfa4839U, 0x1619fe57bbecd3b5U, 0xddc381b8e78c161aU, 0xd31eb5353d50ff8U,
  0x2da91c7f6404ea8dU, 0xf4bf2a55d933d064U, 0xb670813ef9fb00f1U, 0x217755befd7e683U,
  0x12cd3560a5cf17daU, 0xda0629389198047fU, 0xb81c0081ee143d69U, 0xe2f00b0ee9e9abdfU,
  0x1225f43d819ef8e6U, 0x39fd30ebac1c20b2U, 0xcb03cd0a7fe1f1b8U, 0x912cf27ec1a98f7U,
  0xd44dbb7ffbf8cb99U, 0xcea31a1c9bc8e4c9U, 0xccee06231c7f01c7U, 0x6cdd1dd2e01cd99cU,
  0xf8e5fa12b3d61544U, 0x69356bde594681feU, 0xf7b227537fe0e3d9U, 0x170f4422fdb15bbeU,
  0xfe9209cb8123cea6U, 0xf312b15018630ff5U, 0x8167ee5fecedfb6aU, 0xf2bbfb20b114eacfU,
  0x3a1032fdf7ef1a02U, 0x131446019c81c5fcU, 0x681d30b33d70f05U, 0xc0eec42625370a20U,
  0x17cd0d1bf97b17edU, 0xe0b17f1dba24e22dU, 0xfc362ee9ee1607f9U, 0xf61f1c12ccc87f13U,
  0xe635c9d343950edbU, 0x15a70381e40bf040U, 0xe3fe6f5b5d230f29U, 0x286b9502a30ed981U,
  0xa5f772d1dcf2ed30U, 0x7fdcce52eb04b1f8U, 0x12dbc081f6db2d16U, 0xd448f7da4b89ffbaU,
  0xa6f4d7475e13cbc9U, 0xdc302b0a7fac30e0U, 0xe509221dd015faf5U, 0x7fdfc2c3a24b3ceaU,
  0x1c81f45e29895ce9U, 0xf925d54ae9e8e969U, 0x91cf6c397f06d403U, 0x1de01310fbbfebf5U,
  0xf481a7f58fce7faU, 0x1ef1e310cd1341dU, 0x5d1e4528c454ecc8U, 0xc7ece8e681305b2eU,
  0x35e91fbae827fdfeU, 0xcc0024428126ca1aU, 0x62f6134c34da08ebU, 0xde368fa1a9d7f49U,
  0xd0aac585b40dc9f0U, 0xe25e23c5f813ff1U, 0x81ea2353a7d7d80cU, 0x604bdd1b8e601319U,
  0xd54fba02782ddbd4U, 0xe2eefdc8c11081f0U, 0xf62edb2df2c3ea25U, 0xe5721ac4e2057f10U,
  0x90324b2ba5dcf0fU, 0xe6cfe8b181e7c2b8U, 0xc9cd81fcd4e210f8U, 0xdae9db1843576730U,
  0xa35d21f5ca0a0e0cU, 0x6e1ef50fa281bb9fU, 0x507fada009462009U, 0x16eaccd09f131543U,
  0x81751dccb6f10ee0U, 0x23e49c29c7ef9f04U, 0x7fdefb13aacb4d46U, 0x3aa8d9f63fe009fdU,
  0x371095151e07e0bbU, 0x7fc24ddd9b2b5a04U, 0xd926252cc5e701ebU, 0x61e0f4db81f66d51U,
  0x18f5f1c82f811632U, 0xdec6fef617d527d3U, 0x81c7f30b12bc9f00U, 0xa3d89aee9afccdf8U,
  0xe7a62826c6072d24U, 0x11de6ec54e4a3d7fU, 0x6e8fabff11143812U, 0xb7c101e5627ff51fU,
  0xcf1c11fc0ccefe04U, 0x6e87f483acd02e1U, 0xfe1e2f481b20f1c7U, 0xe28164ca8c0f2cd3U,
  0xdce63cf2a25d0433U, 0xccb4fea0ef7fc679U, 0x25fff9d20249f8ceU, 0x2ae6f80e8107e9d5U,
  0x91454c173822f1d7U, 0xf3d3dd24bcec7fb2U, 0x2a5dc2e8d16422f5U, 0xa7f3f3424723528U,
  0xd9e90f54d15ccf72U, 0x3404c8edc87f8fffU, 0x2b1817b50d94867fU, 0xe29db376403bf86fU,
  0xda99e7b5046ffda9U, 0x93323360ac190881U, 0xaa04cddfd708933cU, 0x7fab6e39f70fdbfdU,
  0x1fbc6c4c7ffff70bU, 0x61cbef911f2664d8U, 0xe3d09010ccef0107U, 0x6e1781d2fafeb10dU,
  0xe903bf237f06f7f8U, 0x27dd30e51fd524eaU, 0xfffffdc1fffff663U, 0xfffff48afffffcf9U,
  0xfffffeeb000001b5U, 0xca5000002ceU, 0xfffff561fffff9baU, 0x25c00001485U,
  0x690fffffb93U, 0xfffffcda000002cdU, 0x821000002fbU, 0x41f000002d2U,
  0xa5700000fe6U, 0x1abfffffef6U, 0x8fffffff9aaU, 0x1b700000395U,
  0x5f0fffff9edU, 0xb8600000642U, 0xfffffa5cfffff251U, 0x704000006aaU,
  0xfffff4ccfffffb6bU, 0x7da00000173U, 0xfffff95b00000304U, 0xfffff987000000afU,
  0xfffff90f000009faU, 0x110d000007bcU, 0x11b00000336U, 0xfffffe8efffffb04U,
  0x117600000a53U, 0x1b8fffffa1aU, 0xdbe00000164U, 0x24c0000076fU,
  0x16500000012bU, 0x21600000bfbU, 0xffffff4200000457U, 0x14b800000c69U,
  0x13aeffffeff6U, 0x1094000009b6U, 0xfffffd58000017f0U, 0x65a000009b0U,
  0xfffffe92fffff9eaU, 0xfffffbb7fffffe44U, 0xffffff3100000a2aU, 0xfffff90f0000019aU,
  0xe2200000947U, 0x22f00000770U, 0xfffff7dc000011eeU, 0x114e000014c5U,
  0xffffff830000040eU, 0x4df00001caaU, 0xe81f9c96ad31709U, 0xf154a09b12f7d451U,
  0x14508ffef9fb2b9aU, 0x3e1b4196301812cU, 0x19107fe62eb2592fU, 0x9cbbb21148a2e522U,
  0x152d81cec70213eeU, 0x81f623e3cd4e2a26U, 0xf781a33781fcb67fU, 0x2ec8bfd1700ab874U,
  0x7ff969951ad1b27fU, 0x7fdff2361e6ba9e9U, 0xd20f7d0865ec357fU, 0x811081817fd9d9f8U,
  0x9412e026b1fe7fecU, 0x811ace157fbfeacbU, 0x7feda85c02ab6c7fU, 0x24e7b873441a7f8dU,
  0x247f8681df7f18f4U, 0x60e5969933c47dafU, 0x9523a37ffc817f3eU, 0xb7f901bac475baf2U,
  0xe8169fe614ebc31U, 0x5817fbe47a57581U, 0xa443dd696c5f205U, 0xd4d8e21fdaa21102U,
  0x2b2781f23a81b267U, 0xf6162af80622b9ecU, 0xa6008c4a255022e0U, 0x26b781a5bc872509U,
  0x18e82de20cf6d5f5U, 0xff097ff547000deaU, 0x2c8fb9341be00a0bU, 0xc37f91bba3d2b8eeU,
  0xd3388bb6d9db37aeU, 0xfd080f2f2d7e06a2U, 0x1fa5fb1660817fe5U, 0xb87f225dffbe0c7fU,
  0x1e68e4fd2daf3b81U, 0xbbbf5e963f5d37fU, 0x73103fb381ceef4aU, 0x81a6966d4cdae841U,
  0x36336adf15f12181U, 0x32ae678c3b2a157fU, 0x3cd7c7ce00d9dc7fU, 0x92c77f4c7fef7f81U,
  0x4fc51b817f28d6d9U, 0x19e30bc48169be34U, 0x81047f7f59c63d08U, 0x4254f5e352e6c9d7U,
  0x147f617f005cab39U, 0x438181773181b7d2U, 0xd81dd7fb281815bU, 0x2047b520f47f0481U,
  0x7fd6c9da08f77fbeU, 0x467f36a57fcd81a7U, 0x7f4881d37707ecfeU, 0xd9c0f97fe6f0599eU,
  0xc68f9397987f89bbU, 0xffcc30818ed1fcacU, 0x4677c920818bba35U, 0x17b91abe10c8f1ebU,
  0xc84118f74345e46bU, 0xc2d33441135bfe7U, 0xd7f80c69e4ec18c6U, 0x4881b6cdc45e5cfaU,
  0xfce6c70304fbfeb2U, 0xac27500905f9fbd3U, 0xe0baf20bae053bd1U, 0xdb7a881d9008ddf0U,
  0xd17ab2e2efa105f1U, 0x118135f3d7f7f02U, 0xfce0d0b2f4fa0001U, 0x9e12746d49fff1cU,
  0x1fd3bdf4510bc9bcU, 0xe366b1daf40a15eeU, 0x1769f785f72fdc10U, 0xc105e0e781361a4eU,
  0x16fff6c42109ff32U, 0x3a140262bafaec51U, 0xa4b612081ffc114cU, 0x90dd472109f9edd0U,
  0xfd037f5bfdfc7fb2U, 0xfcd7d0ca9827e055U, 0xd2076a29caed95dcU, 0x50036935f3cb7fecU,
  0x7f8eb73c7fead342U, 0x3866e5811651f20aU, 0xcc42f4cbb04403edU, 0x39c48881b1d4ed37U,
  0x451d1ca07f1613d9U, 0xd5d71b7f357fd712U, 0xda9b0bf4efd3b441U, 0xc6e366562781f158U,
  0xbf709fc0d8c00bf3U, 0xfea439b9c54c307fU, 0x17fed7f4f1ebe9fdU, 0xdf1fdbf3f81f9fdU,
  0xe60bbbe30816281eU, 0xfb9325122d2909f8U, 0xedffeccfc329f618U, 0x172bb3fd115c13f8U,
  0xec0bab98fa0928adU, 0xd8c6869f092601e7U, 0x18cd4bf217e50fe1U, 0x810ac901eee5211fU,
  0x1915a2f8ee9cd4feU, 0xa3bf56e17042a52U, 0xafffffd36U, 0xfffffba100002034U,
  0xffffe1c3fffffc71U, 0xc0a00000128U, 0xfffffef4fffffab7U, 0xfffff6b100002f86U,
  0xffffff370000025eU, 0xfffffd3c000000daU, 0x33dfffff9dbU, 0xffffd768ffffff74U,
  0x1c9ffffff9e6U, 0xfffff761ffffe379U, 0x1d07fffffba1U, 0xffffcb4dfffffa4eU,
  0x189ffffffd17U, 0xfffff9bbfffffc01U, 0xfffffb40ffffffbeU, 0x17f00000076cU,
  0xfffffd2dfffff24fU, 0xffffff5cfffffee1U, 0xfffffa81fffff7b8U, 0xffffffaffffff668U,
  0x192efffff9feU, 0xfffffe4f00001ba4U, 0xfffff8f600002014U, 0xfffff3c6fffff615U,
  0x104500003075U, 0xffffed04fffffb86U, 0xffffff44fffffd91U, 0xffffe736fffff4c6U,
  0xffffe5ca00000b4bU, 0xfffffbebfffffefdU, 0xfffffed2ffffdf87U, 0xffffff4e0000160dU,
  0x1f7fffffffd0U, 0xfffffc1300002040U, 0xfffff8b300000adaU, 0x38300000894U,
  0xffffff27fffff1a8U, 0x3703000005cfU, 0x625000003b5U, 0xffffffb3fffff9f6U,
  0xfffffd6e00001b66U, 0xfffffe90fffffe87U, 0xfffffe6700000578U, 0x1764ffffe0e4U,
  0xffffeb110000049fU, 0xfffff2ca00001cc8U, 0x34e7fa5961ee4b1cU, 0xc1c90bd90e28fbecU,
  0x37911043f5f9af50U, 0xc4d73af11a2e3341U, 0x203fc8202d4ae903U, 0xf15835bad4c9ba43U,
  0x2cfd0ac7d6c33031U, 0x370e15d830280b62U, 0x9beb0a12fecf6866U, 0xaac4e23f2dd4be1dU,
  0x40f0ffe3af826cfU, 0x274c39f40f7f2ce8U, 0x3bd5ea0be622c8bfU, 0xede3f4e85101a5caU,
  0xc9d14c3727ea42cbU, 0x155103ce10467fccU, 0x4be90b14d2abdd32U, 0xf34e45f382f01834U,
  0xe835cdecc2b45ac8U, 0x2905563e452f2c49U, 0xcf3631f471234423U, 0xb3aad926ca1c95e6U,
  0xed810e83cf6ceb1U, 0x363d3fefe04b2ca6U, 0x32ffedc8beeac221U, 0x23f1cecd2ed218b9U,
  0x36262bae12437fc5U, 0x2120fbb9cce2af50U, 0xecd55dfded789830U, 0xacf6c8bf8aed41d4U,
  0xc3fb48c4dd2bc4f9U, 0x9491070513ea29f0U, 0x3f10f3e6df453edaU, 0x37291fafc876f703U,
  0xf1004709a5c43fabU, 0x119b99bc1feb4db2U, 0xa5646f724090534U, 0xe1d0c1bd362c648U,
  0xd924862d13f1e024U, 0xdcabfbd0fd3a4fcdU, 0x23eec6f62c63b6e1U, 0x5776d11cb4fa0efaU,
  0x3ac9dc9d3509322eU, 0xf8f39c27d0238152U, 0x991eb992f76021f4U, 0x2a4f01c6c1f8db1aU,
  0x4f4ffed50c57e2afU, 0x5e551516440ea7feU, 0x2a0730d114f72ee4U, 0x2db92c0f03bedd13U,
  0xb6ca32e112ce34ffU, 0x2b03bfeeb820ba10U, 0x31a83dc3d1af1c33U, 0xeceb0916153426cbU,
  0xe2d8c517c802fa90U, 0x7510842bd0d1eeeU, 0x810d53e352581f5U, 0x2f021fc8c5f9e221U,
  0xe2f6fb11bd4cdefdU, 0xc21a1543e5e71afbU, 0x234281ee04cfef0cU, 0xdbb90add1bc90aa8U,
  0xd8c118dbab6105ceU, 0x14bbf218babcac49U, 0xf9aceac164060008U, 0xd7c2c5fcd346d69fU,
  0xe8c41f43ec15eeccU, 0x3d12ddd7d890022bU, 0xb012dfe44bf1362aU, 0xf216bd25352be3d4U,
  0x4ffaf0374cf62518U, 0xa2ad13014f7172bU, 0x12ec110df38f9bc3U, 0x1117cf102acdf6e7U,
  0x10ac0ce4e2ef29b6U, 0x1f22a3c61be0d8faU, 0x20dd0aef50c4f909U, 0x441dcddf0c07f015U,
  0xc93235f4fffbfd3aU, 0x35433737f22a0716U, 0x3a1e81e41224e0e7U, 0x1def390fd09210dU,
  0x4fe36ecdf23f600U, 0xd810f038ccf024d4U, 0xf232e92dc20c31cbU, 0xf50eeacae0e109daU,
  0xc2ddfc3b4df9140dU, 0xdf67fe4bb415c0eU, 0xe92c0523da1e2cf7U, 0xf63026fc2418336cU,
  0xd9d6f4dfcfab1d1dU, 0xeb073dfb5a13a506U, 0xee443bd0d8db0c27U, 0xe6ca272903eba6beU,
  0x8800f100ccfa2fddU, 0xf8132128c32809e5U, 0xc148d8029d0e9c27U, 0x1616e320d73f463fU,
  0x1015b733120e2bdaU, 0xc34d46daeb731081U, 0xc0f6c21bf20ef0d2U, 0xfc04e12ddc3834f0U,
  0x4504109efdd50a15U, 0x3250632102d30a6U, 0xc9ad18e80af730e5U, 0xff00d434fb0e090bU,
  0xd3d1eb0c4dfd2921U, 0x8d338144b0ab7faU, 0xfb2a2ee1e3bd14c2U, 0x7f0d6d6d26aca375U,
  0x218f8e9be20d5d2U, 0xe813e5e7ca10c00bU, 0x21c916e31bc42139U, 0xe5010da82657123bU,
  0xf0440711182ecc57U, 0xb60c48c9d49dc11cU, 0x1d33ddf4f702b4afU, 0x7c692c0feea5f5a5U,
  0x27d128dbab031ffbU, 0xb150aa4efafc3dbfU, 0xd17b91c00f014f7U, 0xbca83e36f8dfdea0U,
  0x449e461f3251c199U, 0x23f21b2682162e28U, 0x3e9e32d320cdc21U, 0xcb0507a5290cb549U,
  0x549f06cb14e4d37bU, 0xa4fb2a3bfe930213U, 0x5123ed0fdde3ca88U, 0xf9e0e8c4cc81e3f6U,
  0xac63a62f93fc0cf4U, 0x31faae2e7853ebb6U, 0xcc19dc11ecfccd1cU, 0x10faead8d853fdf0U,
  0xd1cfd1e25f110dfU, 0xdd202a121165073cU, 0xe93efd1b07090829U, 0xddf3f523f113d036U,
  0xfceccfec301af82cU, 0xd22cd400ec0f1af1U, 0xf4ef1bebff02d031U, 0xf10dfc0f4c0af024U,
  0x1b19eb7f092cd926U, 0x28fd133408060824U, 0x21ecae6bffdbc51U, 0xedf17b26b9260ef6U,
  0xb5b30b41f53fc01eU, 0x5daff673da00c266U, 0xc4d42800003ff316U, 0xb7d9c8ee082ff92cU,
  0xdae52c0125e7afccU, 0x65cfd42eb4c032ddU, 0x49cf170e0e8113fbU, 0xdd963f08ed3bf038U,
  0x2475d7f6551cbdecU, 0xdda5c71b0dcffaeaU, 0xf82cc6f5e3d8e61dU, 0x747e91402e613dcU,
  0x1ed308e7e0fa2227U, 0x3c26e315e3ad9af5U, 0x10d13e1d2acc4003U, 0xee1e811324040214U,
  0xb3174e459d282112U, 0xce61455db1af9daU, 0x11caddf49fc00ecU, 0x19ef4ee0defedef8U,
  0x4b10abc429ef165U, 0xe812fdff12f20e0bU, 0xaf2500f47733d83fU, 0x41bd773ebffdf858U,
  0xeef0c21fb00dd2e2U, 0xed0401f41d03e7eaU, 0x4a3420d04f3b4af7U, 0xf8ce0bd047dc2b49U,
  0x20eeb6ed1de5df1bU, 0xf981e9f2dad3b547U, 0xd049e93eeb45e5ebU, 0xe746c8db2efd3119U,
  0x2a4311d60328d708U, 0x302023ea47d5eea7U, 0x44b93add0becf2e3U, 0x4bea064e2dc1dc4aU,
  0xab0a40b4ccf41586U, 0x2ff1162829ae2e4fU, 0x56faddd018f5d25aU, 0x81af570e422c0de9U,
  0x1e4be51a28f804edU, 0x3860100a090171e5U, 0xf017e6ede9f80f09U, 0x393a4209c0def460U,
  0xef0aa572e32ad0beU, 0x1c20162d264a3c03U, 0xffffd473ffffbad7U, 0xffffd6ef000022edU,
  0x19da0000211eU, 0xfffffb140000253aU, 0x1272fffffe15U, 0xffffd44300001d56U,
  0x204500001fa5U, 0xffffbee00000041fU, 0xe3dd4821ca561cc5U, 0x812d5e1f832e681U,
  0xbe04e7e03115f4ebU, 0xc183571ea241b81U, 0xc9e450b4cf2610b2U, 0x4aeb81dfc1d61ae3U,
  0x81610b15b51adfe7U, 0xd2e02f3215a04bb4U, 0x18f87fe90a390f03U, 0xcd436848cdd11e48U,
  0xb3e24c07a3083a02U, 0x5bdd067f0670240aU, 0x7f3222dbeef01406U, 0x5002131734130c03U,
  0xfff62669d52622cfU, 0xca7fc094dad049adU, 0x3b7fea23da2c7ac1U, 0xeb2aea110dec031cU,
  0xfcddfd1edc35cb88U, 0x55f06cc486ea7f81U, 0xd53859f33d31fee9U, 0x7f1ab1e603b3d8e0U,
  0x49f4d51916db30dcU, 0xed7f6ab263ffc81aU, 0xc164585c21cb2106U, 0x7f62db0523bcdfe3U,
  0xb3b5f7fe1abaf8e1U, 0xdadc7f63dec9aaf0U, 0x81358e004af7f2bbU, 0xb6d1037c190d25a1U,
  0xc801f3a4df61e5c3U, 0x9f534f49d287fc5U, 0x6706eb469d6234abU, 0xe5ab7f26d4bcf598U,
  0xfc0f70f38140defdU, 0xd9df13f6ef7e110aU, 0x4774a7f00d25e3feU, 0xab551f8128c6da63U,
  0x812df6ba2dca92c7U, 0xbdb1fa939b23e3c0U, 0xe33ef7e6875cbb06U, 0x5b54107f3f1debc9U,
  0x621fff17f040bf7U, 0x316a491eed35e763U, 0xdf472f257f35e0dbU, 0xf2b32815dbc41192U,
  0xe50cd3db0b9a223aU, 0x95ee2d7705e8e281U, 0x1d1bf450f337e0c3U, 0x7ff833dbdab22413U,
  0x811cf54be6dbb800U, 0xf05bc7169cf3d4e1U, 0x44f581a6eeda1906U, 0x365e3c1d16f50cb0U,
  0x7fef03f9b5f41a0aU, 0x6a2024b91815d721U, 0xdd2334f4a8dffdd7U, 0x7f2c4d5a16773e69U,
  0xd2fd0aed81d584e9U, 0x309cf0090ef220e7U, 0xade21e48df38fb08U, 0x7fccb5e9fa0ac6U,
  0xf22b524e1f2881e9U, 0x490d1e5b177334b0U, 0x5bf499451b06650dU, 0x81dec1b36c40f839U,
  0xf2f2610dfa00e12cU, 0x1a7f5e0134020030U, 0x418959547348f3d5U, 0xa91d0330ff57097fU,
  0xc230810ef102cde8U, 0xfafcfc130d40f9e3U, 0xec17bbbbdc2bb904U, 0xc0e42d6a1fdf2681U,
  0x174926e4f68154e5U, 0x17567d6336a1f609U, 0x8e4da03e6f441ecU, 0xd5221281d4c5a05dU,
  0x6e4827cd8c28f7dfU, 0xade248f8815e3de0U, 0x9e1d08f94405fee0U, 0x81bb050308f023abU,
  0x12eff97f3b000dbbU, 0xf8c80a06ed022c1fU, 0x871b5025834b011fU, 0xd6e27ff93ae8b149U,
  0x9bff7f73d7208344U, 0xab903e7e314ce92U, 0x8eba360dc7fee05U, 0xb2ec0c2cd559cb17U,
  0x24c67fc890f634a6U, 0x51efd0007530120dU, 0x12ea8307f5f6f212U, 0xdf9cdf17f6ee236U,
  0x7f24d5401901e558U, 0xd314deb16b4e4af9U, 0xaf7ffe30e1edf9dcU, 0x132f6f13f8d948d3U,
  0xd0cf2c48f7f7d01bU, 0x781f40326e708c7U, 0xe7e7ed109e2334d9U, 0x61337ffbe3d12966U,
  0x21342040ea04d9cfU, 0x2cf6d3ef7f400829U, 0x60beb3cb1be26652U, 0x34f1bccef73fff7fU,
  0x8166e9ec3363fbd9U, 0xc31565ddcd8d0536U, 0x810afa6e281dd6d6U, 0x1e06f9fc2a4b25e0U,
  0x8f7f34088554b1b5U, 0xfe12c25f33d27696U, 0x122240d5fce6a559U, 0xb93717037fee4307U,
  0xe97f2838d3a40ef8U, 0xd80329060cb448ceU, 0xfc13c99ddc58f603U, 0x7f00d99aff3347e4U,
  0x3c3c3d7b0090629U, 0x3cd75d7f07d11c9dU, 0x3a039365149de187U, 0x816d0522d8e26af3U,
  0xf07f0a22fb393904U, 0xfd2222f6d7062acbU, 0x5c451151dd184225U, 0x225c7f992430ea32U,
  0x33a523f259031f01U, 0xc3ad6ea094fd37fU, 0xe81ff806f6db1ef1U, 0x2b54edddc7aa7ff2U,
  0xebea3fe7ee3a42ebU, 0x3781b478f116c8c2U, 0x72a2252f9eb5549U, 0x8987c0431d22177fU,
  0xf42481320c1e4cfeU, 0xb0eb051611e21121U, 0xa647623c44c6e78bU, 0xd811ad3c0c475e2U,
  0x3eb662652f45efdeU, 0xac2fe944f25d187fU, 0xfcbf7fcef1fa21f5U, 0xaf41c1922f3f8f6U,
  0xfa47e716f73bdcdcU, 0xe0e7a125f381f5fcU, 0x132b1237f1cbf5d3U, 0xdb0b19c1811c5b17U,
  0xd9f92a0bcc0ff5b3U, 0xfc4a7fc43d0a0855U, 0xeb28d5a670c9ff0cU, 0x7e5b410d1443be7fU,
  0xc109e00a5e30c3cbU, 0x378168cff0177028U, 0xfe04422cfec7b904U, 0x7f025a22a6711e98U,
  0x2fdb3e330f45f50fU, 0x81b2e937fd3c545aU, 0x48122c4efeb9f4fU, 0xd13c6439790a6106U,
  0xcf3022293166f114U, 0xdbabb97f491ff7a3U, 0xf22acff6f424de06U, 0xd1114b338a157ff4U,
  0x55d6d8813fa25a38U, 0xda2de91c6530282cU, 0x2f500a7fe4c407faU, 0x2ee4511c1bdcd3e3U,
  0x2aeb391d03f3e822U, 0xfd1df31ad6ed2581U, 0xe0350e37a77a17f7U, 0x25816ccadb089f05U,
  0x21b7f70811d943b4U, 0xb6811534abd425d4U, 0xb042d8e8282c1b0dU, 0x57e32953147ff1f8U,
  0x45face13cbeef92eU, 0x7f57ca4c052afbU, 0x4b41e706275014fdU, 0x55007ea054ce97fU,
  0x3860811faa462701U, 0xa4f34fec0ed1364bU, 0x1581b040aa01f4e5U, 0x64b6f8400cdf33dfU,
  0x8b6ec4e5085f8a7U, 0xa3511ebad8147efU, 0xe8e2edc6d1311bddU, 0x7f2df62ed1f51105U,
  0x8cc74bc2e228e8e9U, 0x2381ef1c0ab61ed1U, 0x46db0e32cde6ffdaU, 0x7f0e38c4b3ff04b9U,
  0x95271bf4610c07d1U, 0x29e56ef8f1cb7f9aU, 0x6eafffffadbU, 0xa3c00000af1U,
  0x57bfffffaecU, 0xfffff47bfffffb72U, 0xfffffd50000002c9U, 0x5c300000b13U,
  0x96fffff5afU, 0xffffff2500000a5bU, 0xfffff0d5fffff1f8U, 0x29000000522U,
  0x177dfffff7aeU, 0xfffffdf8ffffffceU, 0xffffff62fffff285U, 0xb940000053fU,
  0xfffffba3fffff8a4U, 0xfffff75dfffff9b0U, 0xfffff24dfffffedaU, 0x3a6fffff74aU,
  0xfffff4470000057eU, 0xffffee83fffffe81U, 0xfffffe4800000135U, 0xe58fffffe73U,
  0x3cefffffe69U, 0xfffff85a00000efeU, 0x97fffff792U, 0x672000013a8U,
  0x52900000339U, 0xfffffd8b0000010eU, 0xfffff70efffffc3cU, 0x7bfffffeef2U,
  0xfffff28bfffff34dU, 0x1311000012c1U, 0xbeefffff67aU, 0x21700000383U,
  0x15600000d24U, 0x2d7fffffdfbU, 0xfffff8b7ffffec18U, 0xfffffd0e0000025fU,
  0x730ffffedd7U, 0xa1e0000041aU, 0x1a6ffffff7deU, 0xfffff2a1fffff39eU,
  0x7b1fffffba1U, 0xfffffe5000000999U, 0xfffff78900002098U, 0xfffffa1dffffff30U,
  0x1c98000001e8U, 0xacfffff18dU, 0x2578c86f71ae8e2eU, 0x25d1f47c7f938104U,
  0x89494c5b625feb63U, 0x815f5154e773b146U, 0x3cdc38dae2266ca8U, 0xa795af2f441b0afdU,
  0x565cb107fbde2cd7U, 0xa4da502181d7da7fU, 0x2fa22cb59cff3940U, 0xabcc0a677fdc2253U,
  0xca90aed0515acd2eU, 0xae3097816c9c5dfaU, 0x4b34957fd181813cU, 0x7fd00a7f50c4b10eU,
  0xbc607f607f0a3f76U, 0x8b7f187f904ad37fU, 0x45be2cb9bd617881U, 0xbf815039f43344e6U,
  0x6477d999fbcf7ff0U, 0xcb156159a5305f55U, 0x4382ca039f50db21U, 0xbdb8817f3ce8167fU,
  0xb481f46452538127U, 0x812481a07f816c32U, 0x2604ca358ee3e209U, 0x6ecf113595b5ee34U,
  0xc01c09503b1c7f41U, 0xe14bef3ced93f550U, 0xff711d8ed2d240fU, 0xe0b3703ada1134f0U,
  0x2a341902f20255b3U, 0x11fb344dae4f7f34U, 0x289e81dfc37592f8U, 0xeaece22e07d61254U,
  0xf2d1d850291ae7e4U, 0xce04e6e701cb4a25U, 0x4b7fa5307f86f162U, 0x398171634d81d338U,
  0x81675c7f577f9577U, 0x3dd67f3fbd7f1f3aU, 0x53b37f81d1026435U, 0x81e4b54f7f5d2a82U,
  0x1960862c2aa5faa2U, 0x81816238ba6f2e73U, 0x66a579b68b75187fU, 0x8181c7446ea56dedU,
  0x9da38f817774df7fU, 0x235be4a62f8f47e0U, 0x7f6081171892cd7fU, 0x7f8e7f7723b53b74U,
  0xcd7f4f5f7847217fU, 0x75056b40816b4e50U, 0x7f8151bd937f7f29U, 0xb1c96a7bb17b7fccU,
  0x7f7f819f5c813ea1U, 0xacbb7f7fef727b62U, 0x7f815581817f8175U, 0xa191af5359817f2eU,
  0x8199aa727f7fb26eU, 0xf67fceb716c0427fU, 0x6c28ba18b2aafc39U, 0x55f3162b8fbf3756U,
  0xb00d27fe33f05b2fU, 0x5e371527fbab362fU, 0x37e9efefa275364aU, 0xd5d17f5eac3973c5U,
  0x6412cf1151d12b99U, 0xe009366d2337611fU, 0x2690b099b557acfdU, 0xa8a339182cda3d3dU,
  0xbdd5927f302a04edU, 0xa3cece7e8b20351U, 0x3550c4b5ffc74c3aU, 0x265e750577b82262U,
  0xf723536416488e4bU, 0x24e445b0a60d5b13U, 0x51d332b2c9ccd37aU, 0xc317b948436dfc81U,
  0xd6ea961735c9fe81U, 0xe9a31c58e87f3e39U, 0x58d849fc8e2d0125U, 0xb5a006f1edf03fccU,
  0xe5f281b936461c32U, 0x394b5bfc16adedf4U, 0x5d1db3a3eec1324aU, 0x253d770ff5cd5e7fU,
  0xcc051c281a28ea49U, 0x51c65bcba8187f12U, 0x5ed6f2d881269c77U, 0xc43a357fcb7f419dU,
  0x3cd38d817f9fea81U, 0xeec739722b5e4641U, 0x68a267d9a30bbd19U, 0xa0812d0bfc9f7304U,
  0xaef0903d48631e23U, 0x365067dfeccb8102U, 0x570b09b4e1e12d22U, 0x232320debee50c35U,
  0xb2ff39d3031d250aU, 0x35e413e722f1460aU, 0x2204e02c8154d35cU, 0xeff86149cf3d4fa5U,
  0x3dd2f80551ccf4bfU, 0xf6d93244681b1847U, 0x26d303eee713f4eaU, 0xd5a46f1b10cb3929U,
  0xe7ef9b3f102924c8U, 0x1d1732041299baebU, 0x5020000002dU, 0xfffffe00000043adU,
  0x326500000165U, 0xffffffdaffffebadU, 0xffffff0dffffe29dU, 0xffffea2500003a64U,
  0x6b9fffffbbdU, 0xd2000008b4U, 0xffffffc200000185U, 0x1d7ffffe46cU,
  0xffffcc5dffffffd8U, 0x4729fffff5d4U, 0xfffffaf800000030U, 0x31fbfffff49eU,
  0xfffffff1fffffbdfU, 0xffffff8cfffffe05U, 0xfffffdde0000015fU, 0x30e60000005aU,
  0xffffff2d00001d7dU, 0xffffffd50000255eU, 0x1f0000353aU, 0x45a00000498U,
  0xffffe070fffff233U, 0x32ef00001e3fU, 0xa500002290U, 0xffffffe3000033c6U,
  0x3342000010c5U, 0xffffff910000003fU, 0xfffff8e5ffffead1U, 0x1924fffffcb9U,
  0x46fffffa40U, 0x2e79000028d2U, 0x1efb00000032U, 0x37faffffe251U,
  0xfffff353000028a4U, 0x8e00003263U, 0xfffffda800000107U, 0x200000348aU,
  0x47500000049U, 0x3ff200003820U, 0x1da1fffffe9cU, 0x77fffffe69U,
  0x4327fffffb06U, 0x329300004041U, 0xfffffe0effffeb20U, 0x6c000040f4U,
  0x15a400003084U, 0x3f0ffffffcfU, 0x97cdaf392810390bU, 0x16e11e14d42603f6U,
  0x1a13002d33fb4531U, 0x52125f4331a0f5bbU, 0x321c4d0414d301e6U, 0xe3fcc6e93352e107U,
  0x20df13fdf40b2a0dU, 0x6f7dfc51febf79aU, 0x1ae3efe81208e281U, 0x73cd149f01747d5U,
  0xed8e93e056206baU, 0xeee41ccfea94efc0U, 0x15cb4c241f1ce4f3U, 0xedd4e3251ae1ea1dU,
  0xb2371be932240c0eU, 0xdefaf4c64033fce4U, 0xdfe34eefd3ffed7U, 0xddd9e019fc170381U,
  0xfcd7da0e0111f2b8U, 0xed2258e30f1b472bU, 0x41f91bc8e0fcfa07U, 0xf0c8efe1f4d2f909U,
  0x1b28f115f3f4fd1aU, 0xd7cc383fe4560d02U, 0xdbdd03f34ee8ddf9U, 0x1ad8fae524fc1712U,
  0xf324faf9b5b91a42U, 0xe0e51be0ff26e17fU, 0x4e1a57df0229d3d4U, 0x2cf31ee9f5ee1c18U,
  0xfbffd9f1d214f7a4U, 0xd4033f1a0be844b1U, 0xebe533e033dfdc02U, 0x4e1d01942d7ef26U,
  0xfbe3ba1b0c5cd32fU, 0x5bebda04d5efbeU, 0x463204d809bd39feU, 0x34ed1a46ffa026f3U,
  0x4f46c32de7e0e881U, 0x2e3c00de28004232U, 0xdcd3e60d09c2c3daU, 0xfe35fba12c1ed317U,
  0x352115f72731f3e1U, 0x2f03261b390ecbU, 0x3a3417fe0034f478U, 0xb21508251310f4faU,
  0xeef574f737a8f5fcU, 0x431115c9ef120615U, 0x1ac4efd6ffffd5beU, 0x65ebd1ce50382ce4U,
  0x172708041bfa1af6U, 0xe70b321cd72aea5cU, 0x1cb81e0df316eceaU, 0x250f22c11f2246dbU,
  0x1fcabe0c2aef40f3U, 0xc3dc0cf911220f0dU, 0x44e27fba10f5e376U, 0x7e6f1165fcd0a60U,
  0xd1e8243ed3f9033dU, 0x3732a8ca650cfbdcU, 0x1bc8fe08ec18fdedU, 0xfce91bbbe63f08ceU,
  0xccedfaafd4360457U, 0xd9fc05d61dfdebf3U, 0x2963f0cafb0a15ecU, 0xd580a54ef0d0fecU,
  0xa3ab2c44e8e510ceU, 0x1311f33447dc1901U, 0xbb025ebdfac919caU, 0xf5d3bd11cbc7f246U,
  0xe81ea4fa33161c58U, 0xe346177ff9d4dcf8U, 0x3d1ff0d00138f802U, 0x8101f817f70cecf4U,
  0xd1f006f9fbfffbf7U, 0xa43f7f9dce964f6U, 0xff37090eee220df8U, 0xf1bddd0f1a33182eU,
  0xee203d3019d4fdd6U, 0xe0c0edf708f9e607U, 0xe009f6ea3806e3a8U, 0x19cefde8c3d25ce3U,
  0xc1fb2811214106ccU, 0xfc4e392eee10132cU, 0xf8f7e4cdd21b15e1U, 0xd3433e03001bfccdU,
  0x45e5e60ddbdccdf7U, 0xf31b3ae9ff1b1b33U, 0xfc02d4044896041bU, 0xc21826f92ae91039U,
  0xe86167f120c16f3dU, 0x5b0abb090b18ee0eU, 0xd22d020b2a1a0d1aU, 0xe4ff60510e08d6c8U,
  0xf32320dd3e442af4U, 0x1a35fff0d681fac3U, 0x2ce4340308de1afdU, 0xf00119f619dc24eaU,
  0x3d0b352c56640af0U, 0x151304e01acdde22U, 0x23e0d781be8b31e7U, 0xf3172134b4f6eec9U,
  0x721dadcc019d110U, 0x262dcd092fdfb40aU, 0x4e22d1ced005e83dU, 0xe952d8e3350d3b20U,
  0xf7fc35df9de62325U, 0x53393039eaf533f6U, 0xd2c10ff749e204d0U, 0xf61d04d42dd4d2fdU,
  0x49961b2b094bffe8U, 0xe6f434fd9e1f11a4U, 0xf3f2f5fbf722e81bU, 0xea27d930bb0e1418U,
  0x1d2305810ad46133U, 0xa5d62b05f0d4cc09U, 0x340f275cd33c5ecU, 0xf92c2d132ef5321fU,
  0xd10902e8dcdfed11U, 0x27f4f2ea2208f313U, 0xa5f9fd09c70d03cfU, 0xd3b5db70b6850d2U,
  0xe301dbf43f3eb1eU, 0x7a1ec3623e237efU, 0xb17cd05caf4ff15U, 0x531c626d0bf7f16U,
  0xb80c0bebf61823f8U, 0xd736b7ccd349fb25U, 0x218d905f21b14ffU, 0xe614fc221dd71af7U,
  0x3ad8b2c0c1cf09f3U, 0x2b2beb12f0afe6e7U, 0x231817c6f1f9e9d9U, 0x44bbf6f0e5f205fbU,
  0x25c3425134fdf7ddU, 0xf32bea3ff7b3d502U, 0x1dea04511740c3c3U, 0xadbd1ddef232261U,
  0x1f2c142e31c71216U, 0xd5a3f7eb141d2428U, 0x9ebfccf44e11e28U, 0x7f423517d7f83909U,
  0xd60b2df798dd6ee4U, 0xc6ceacc6dd62cfe7U, 0x3b00c1050df91d57U, 0x7cec0681d8391eeeU,
  0x317c0fc0a13c717U, 0x2d53f632260cbe29U, 0x82c08dcdfee9c8d6U, 0xd69add13481902c3U,
  0xf1536538df2aa044U, 0x223ed78e2cbdc35U, 0xc245e4e7df404bd4U, 0xcce3441bff2e050dU,
  0xb6b5d0e8348eefb8U, 0xc835fd232018384dU, 0x6fb7ff2e633b13dU, 0xedef0545be00bd1bU,
  0x210731f01af9c818U, 0xad01f809122bf315U, 0x5ee20af056c3f7f5U, 0xfeee062b083f0416U,
  0x98f2affce821d40cU, 0x2e100734d268d2e7U, 0xfe30dd06dbff47faU, 0x46680de4331716f2U,
  0x2c09f6d7e14b1606U, 0xbf02503c4d3df8f2U, 0x31ca082068eb3e07U, 0x3217f5863c1cf7caU,
  0xd8d0ea31e2c8062eU, 0x8e71cb6b97f2b08U, 0xf1b31311e4fa111fU, 0xf8d3b10a56ffbcefU,
  0x6e0008e8fce3f8c1U, 0x2fb0d21c8f23c2cU, 0x3e7a150fd7f8551aU, 0xecf9030bfde40ee4U,
  0xa52ee70923dadd0bU, 0x36162be8cbfbf83eU, 0xe0fb00feef51e10U, 0x61f3171203dee9ecU,
  0xf4234bf3ad16c722U, 0xd019ad2bf0f4cf22U, 0xa4f7191a7f4f3bc2U, 0x6e4dc306e0d9c318U,
  0xd7a10d75901efaffU, 0x412004ca1f10e83bU, 0xdce12add40cda714U, 0x1ad000be07f4f4e1U,
  0x35e71b26d6c729caU, 0x27aec2ccb33df5faU, 0xc1a9b1e31247bff9U, 0xf9d81ca9017f2fd5U,
  0xb5d500ed00d41afdU, 0xdde9ef2f2ae8d3aaU, 0xf0d9291128df4dc2U, 0x123ed7d84002d503U,
  0xc5fa10fac1f841cbU, 0x1bccc50e39cd02f3U, 0xbec910e1d00d31edU, 0x55ccbcfd37103c1dU,
  0xff23ace12efb05e4U, 0xef28a6da5cd41604U, 0xd1d3d6bff9a4030dU, 0xe74b4eadc5d6ac3dU,
  0xf0a5bb201dcce31fU, 0xe33f091aebb65ce5U, 0xc934c78b8b95d027U, 0x6f0cf737dc7f45feU,
  0xaad414be05d0d106U, 0x581026f9b044dba1U, 0x36ac822ccfc6de13U, 0x8d0ded9fe81bf9d5U,
  0x25a8e5ccd6bb592eU, 0xcad609b8e9c51420U, 0xf5c928f9c7b2f9f2U, 0x5cf649010cd40436U,
  0xd3e516ea36ee420cU, 0xaf1341e748e82af1U, 0x485a3f3501659a0bU, 0x5c54f903d112c991U,
  0x2d96310cde14cff5U, 0xc93eec7f0dff63b4U, 0x4cceef9a28a311f6U, 0xdaf6ea518fb0023fU,
  0x5143a3de69dddf0cU, 0xa5d2ece7523090c0U, 0xd5ed3cf2f96c15a8U, 0xa4fa650a440d1d58U,
  0xb5581217fa0db70dU, 0xd6c3a5c52b22e43cU, 0xdde73d28f745d92fU, 0x3d303db08267798U,
  0xce1be7fc01a81481U, 0xc121336d2ce86bf0U, 0x4f210a7b72e2315U, 0xbec049ee1608c700U,
  0xc627b411d95f0124U, 0xee97f52d3d40ee18U, 0xf3e03ed6f90bb2c3U, 0xe2f80ee0cfe1c1b9U,
  0xd9ce26c75306bab3U, 0xebd632ebfaf60436U, 0xe216f34709d91e04U, 0x1217fac40c25e925U,
  0xc90bec231007ec08U, 0x1e0caa3b2dfae21bU, 0xfeff16d228c22815U, 0x3319e5fe3fcccd5aU,
  0xf00c35daf2f90503U, 0xc20cfffd7f43f00bU, 0x382124db0bc12a18U, 0xc00e13fcd6e247f7U,
  0xf716dbd27f1617f4U, 0xe823f5f22f0e06b1U, 0xf5290af745f0fcfcU, 0xea3a122850d38bc9U,
  0xc23301bfe7d365fU, 0xf831f4f70e431976U, 0x4ffa33101d2c5f35U, 0xddeb05d6b2d9edb8U,
  0x1d6f0cda52d7fbebU, 0x1f06bd57ad34ebe4U, 0x13e3f019ecff63c6U, 0x2260256101d6f5f1U,
  0x25c618090e33ec91U, 0x3155d8fc18473ae3U, 0xf1ed1c28f4224ef6U, 0x190716ef0f52df2fU,
  0x134c16d139e8fa00U, 0xd1cae31121fc09d6U, 0xc7f506f4220debfdU, 0xe117e830e0d7062bU,
  0xefef38bb2be3fafaU, 0x42ff7f264c07040cU, 0x311119022c15ede4U, 0x180d3ccbcdf403deU,
  0x752bfc17fc7e2abU, 0xe6061e091cea4225U, 0xd109e2e8014554dfU, 0x133f06d72f5111cfU,
  0xd4fffafed3316816U, 0xfdd21ad41dc7ee47U, 0x4689259ff9160ff5U, 0x3cfe4bc48372034U,
  0xc0e332f10ee0e4f7U, 0xceb0322ee1dc5e0U, 0x76ad22fc2f85bc57U, 0xb0afaf2d10e7b00fU,
  0xe0dbb3dcccf6e90aU, 0x26de21d730ee0af8U, 0xdd0fc41cd229d526U, 0x181ef291d2c55533U,
  0xe81434214258310cU, 0x254c0809a9f01f17U, 0x24e9f5c3ee31e3f3U, 0xe31213dfd37ff43fU,
  0x1d40cf1d01e003c4U, 0x98ce1d010bde61c7U, 0xbd20dd1233fcd42dU, 0x21ef16f9fb2ae710U,
  0x5bce8fb7fbe38bcU, 0x2a043b2bce2355c3U, 0x722511f8b3082f23U, 0xf0c855053817b7ccU,
  0xf3f630fd04e0f6b5U, 0xd7d0410ef73afe03U, 0xa5971a09f3d31bc5U, 0xdea0a049efddbf24U,
  0xe2b55b22b80bf01eU, 0xc5e61922c20ce604U, 0xc606e836dd0c1bfcU, 0x1146f301211aee12U,
  0x3e14c8432b291c3bU, 0x405580c3df3172cU, 0xcd06bf1fd2243U, 0xc6f9f303fa6fcd06U,
  0x24f90d29f3cb345bU, 0xfcac92044e51ce7U, 0x7bf6131dca460dc9U, 0xc8e912a7dffd0d00U,
  0xac06f12a9d077fd0U, 0xd99c340707f338cbU, 0xd7f5b1e32ebea6a9U, 0xbd93ddebaedfe5f2U,
  0xcf76d7d80ec8fee1U, 0x35f1305446cc0312U, 0xe2662884ddc5f08eU, 0x24ebd9241e2d04abU,
  0x105194b44f0f76a2U, 0x4e11f88da5f757e4U, 0x12204a0cb10c3faU, 0xbbffe82433a34006U,
  0xe38132efea3302c1U, 0x44ace425ca2612dcU, 0x130a06fe18e5e8e8U, 0xd417c6cfc73ac923U,
  0xf3eacfddd92f15ffU, 0xb420fcbceced08U, 0x3020f1f60904170cU, 0x280d54f2eb15f4edU,
  0x68dccb643ef4c3eU, 0xedfee800c9ff0de2U, 0x12c1ea4df4f01012U, 0x40f6e2d42de5281dU,
  0x177fdeffea02c40fU, 0x23efdf2cfeddd418U, 0xad0a1d52d4e2006cU, 0x12d51524f7b9ee1cU,
  0xf8f2eee31005f632U, 0xf1b17ffaf903123aU, 0x5142ee8000f2b30U, 0xca1ee10a2a060ce2U,
  0xedec26e03ad40415U, 0xfaded0f800a7fa07U, 0x32e603cd2cc21796U, 0x12fefdd8ffec14e2U,
  0xc536fc120d1904a5U, 0xe9141ee726eeec23U, 0x7f972c46d3d7ac29U, 0x7ddbd3027c0e621U,
  0x20de1d0cddab1ff0U, 0xc11ec1d24e258ffU, 0xf6fe2036f6f92c11U, 0x427b114fed5141fU,
  0xdc04fa26bfa22128U, 0x2cd8061bd2e138caU, 0xd95e02e7aefd2157U, 0x52f129c2d9b41607U,
  0xe72af3c217fb6802U, 0xd332d1cd3edd28f7U, 0x12d7e3f815bc1261U, 0x9fd330015d7e0e7U,
  0xd64a061720032313U, 0x3a23eada18c7ebebU, 0x4f1b0a1c60d4e10bU, 0x5503e5dacb32a918U,
  0x2ef94209e01d5d43U, 0x3b42f8b34eee02ddU, 0xd101d6d50f4681bfU, 0xb25fe342f313d1f4U,
  0x531bf32a6fefeff5U, 0x38cf01ee20200ce6U, 0xffffe6f600005d38U, 0xffffcf0300001e33U,
  0x1a1fffffc8bcU, 0xffffb1ed00000ee0U, 0x730fffff1c2U, 0xffffc9dc00001c90U,
  0xffffb25effffdf85U, 0x1f82ffffe408U, 0x7efa00003c6cU, 0x51affffcfe3U,
  0xffff9f890000034eU, 0xffffd5dcffffc553U, 0x131b00000bddU, 0x5d3bffffbfb4U,
  0xfffff07a00000d91U, 0xffffb71900000ff4U, 0x60ae70f84500e344U, 0xcd34187f0722d030U,
  0xa7be16d3e16565e3U, 0x20ba22d9ce26f098U, 0xb33e68c3ff09021fU, 0xf7a3b93a1644f7b5U,
  0x3804f2b47fff39d9U, 0xea202ae4f8329c7bU, 0xec81d531ac8396daU, 0xce1bfbeadafafc36U,
  0x47e04a17541be6e3U, 0x5ee00f6012dede2U, 0x24c2d117c6f6b57eU, 0x8eb0c715081160bU,
  0x5c19cc591a145a39U, 0x4db5daf74a0de408U, 0xd401080f57c6d51aU, 0xd4f4de7feaff2073U,
  0x227ef0ed0ff23effU, 0x2d25e0aed55af9a2U, 0xb3ddd7cf7f16ef55U, 0x7f4f5d5edef20e2U,
  0xa3b5e9c2240cfeefU, 0xd61828350c17f3f8U, 0xebdc27382535e734U, 0xbcef1f1df4f50169U,
  0xfd0797f09913d4bcU, 0x7f27942a0c485707U, 0x9c7024ddbf2edddbU, 0x5bd893e842e12190U,
  0xe306ea91ec10f11dU, 0x45d85230810afbeaU, 0xd3064216a91f3e2bU, 0x22f704c21afdcac4U,
  0xedc2ee057f16300eU, 0xe421a2c027c4f901U, 0x327f1fcecdebd712U, 0x41c00ac2e049751aU,
  0x8d5eb332f882d801U, 0xd2d907d79c5709adU, 0x2d3704d58148eacaU, 0xde09e4cbf4d5b220U,
  0xfd5548e0cadb0db4U, 0xaf73b0df15810fbU, 0xcd4af6b0298103e5U, 0xeabaefdb34c8f9fdU,
  0xb8fab02dcb077ca5U, 0xfbe1053703ea16f5U, 0x3f70afb2d18007fU, 0xf3f30ef6050b06eaU,
  0xcfe3ebff2830f217U, 0x1822e210dfcada16U, 0xeb7bcbb10e311ae6U, 0x23ea231d3807e30fU,
  0x3e6f13ec8cbfa16U, 0x81cc0364ed1ffbabU, 0x7f275d1901c8d1f4U, 0xc92c0272e1cddce5U,
  0xeb22c9bb26f9fe2dU, 0x1704e2ca22d253cdU, 0x3ade7707d422a5e9U, 0x6919b07d49648182U,
  0x2beaf3f03c7302c3U, 0xeb1b4de2e81cbcc1U, 0x9081a7fc40de123U, 0x1f0fd0d005be72eU,
  0xbecfb600e2edd9U, 0xf6670c89f81d25bcU, 0xd20ff12f455e814bU, 0x5e220264f1d40fbU,
  0x2434c652e5eebfd1U, 0xd10dfafce1b416d2U, 0xf3081819e1357ffaU, 0xc4f82cf1fdfad533U,
  0x5136d712013a0118U, 0x36fa2dedca362140U, 0xd1e4170debe81702U, 0xe9692f6411c9102aU,
  0xd308ebf7d838eff1U, 0xffb3f704d0ec4681U, 0xd4fa5ecce0dcdbeaU, 0x243109e7d27f2ff8U,
  0xe8991e048e53071U, 0xbd08b52afd0bd8caU, 0x4f21931fc0a1d20U, 0xfda8c7f3100bc2d6U,
  0x60ef20815398135U, 0x6023a0d83b0d27f6U, 0x1ce5f72d14133702U, 0xb20ed8f41bbecae1U,
  0xf8e6f6a97fe5f9d6U, 0xd2e7cce564f9cb65U, 0x4c64f38105c1da69U, 0xc1ee3c0a3a2128c8U,
  0xe70900073c015dc0U, 0xbbed40f015586922U, 0x11ae6e9e38103f2U, 0xefce23022fe0e51fU,
  0x11130667c6ec0b08U, 0xebedfc06e70ef9f5U, 0x504cbf9f7671ddcU, 0xf77f442296b31512U,
  0xf314f140e01a372cU, 0x5ab692a228817a1U, 0xda8adf1707c1d683U, 0x7f2d2306020ee1feU,
  0x4ddb260c1b575c36U, 0xd25af8f90c5ed93cU, 0x25e200fc1a1433daU, 0x392eea180d0d900aU,
  0xed0208110828f2c9U, 0xf032d281fdfbffebU, 0xf0fd12e27f251b0cU, 0x20fe09f6f20a07f7U,
  0xf20ae3eefcecf3e9U, 0xea03f6130df506ecU, 0xc1d329f20743e6b9U, 0x2fbeabea1fd4fb8eU,
  0xe3382037d202c8ffU, 0xf939f229cacbe17fU, 0x125ff7dcdbe7f62fU, 0xcba5cbaae6ddc4faU,
  0x1827c1027fc90be7U, 0xf5e7f4d758e6eb03U, 0xcef2411bf56e3a75U, 0x3c815ad35c35f4d5U,
  0x56e3f1740f3cdc3cU, 0xdb38e612665f2df8U, 0x5adc0104e924814cU, 0x210531101b65474eU,
  0x4dc0efbf9c50b26U, 0x3edfedfe3feffe43U, 0xfc0de5c309f50216U, 0xe77f534cbbec13e4U,
  0xf7f10d032d1c3d0fU, 0xf2fa3739f1e416d5U, 0x1715f8e4d22b811fU, 0xb4304b60cde48d04U,
  0xb4ce95e620e449cfU, 0xd20f3fb83ec9eb24U, 0x601f3fcd3d2eaf3bU, 0x36c922d80ac12bedU,
  0x9ef4ca3081ca1e62U, 0xc266374bf1c12f04U, 0x84d2312ebf27e8dfU, 0xcf113708eb30357bU,
  0xe8b8cae481a71de4U, 0x924e14732ff6611U, 0x64517df012ef07fU, 0xd8c423f83bd91fe4U,
  0xd520d32ec5d71d2aU, 0xcb323b1202ed45f0U, 0xea36d5a191d581a8U, 0xe3dbde2ed037fb48U,
  0xe2f11908ded030f8U, 0xf4f8f9f1d4efa81fU, 0x33430d3631223451U, 0xb226c2172807f8bfU,
  0x252c321b7f080695U, 0xc5b94dee50725411U, 0x6c5fb0c7f054bffU, 0xed0fe2d50aefdccaU,
  0xe4eb060ae3271f06U, 0x171206f90f28dc27U, 0x4928f02a7fe88603U, 0xc215e8fcdd1e260dU,
  0xae68d206f60e169aU, 0xe3dcbad305ec0fe8U, 0x3ed2346e828207fU, 0xe00d58dcf099a813U,
  0xddbc01b749020cf8U, 0x1a3ce0e3f6fdbc1cU, 0x3f02bad1e61df53fU, 0xf2eb659ce3cc98feU,
  0xd31afa1334023813U, 0x1a3be40c7feced13U, 0x2a083d142c09dff8U, 0xce13062ae2188140U,
  0x309d3fd4f3443ee4U, 0x4a28f1b62f272819U, 0xe61524d6e7f6f92bU, 0x2bde3181f6dad0ebU,
  0xc7d2dbec35e42afaU, 0xd3db192e1428ddddU, 0x1062d3629f5eeb6U, 0x27c30cdd2d1194e2U,
  0x4200e940277ff933U, 0x252e1bdbf90a0bf7U, 0x232d3df974a27ff2U, 0xda000efdee2cc109U,
  0xd5e1c334edecfa0aU, 0xcd0e8fa09fc0bffU, 0xab06f2e1c067f3c4U, 0x46ca40eb24ccf3bbU,
  0x243df77f0c42f765U, 0x1cbc0e56c7f80afcU, 0x51d935561e3f03caU, 0x8108c9351397a80fU,
  0x6633233ed31e1714U, 0x6e4ce3d1c3d4b530U, 0x12d30016ae5f445dU, 0x8141cb03d5611b7aU,
  0x21e7381414ed19c1U, 0xd60601ea1a0cf008U, 0xf53206c0e11a09f8U, 0x31c41eee119725f4U,
  0xa03fe9ec7fabd4b4U, 0xe7c0f5f7eb2f99d8U, 0x17104ce33010957fU, 0x168c42105eae2afeU,
  0x992ab46afce95de5U, 0xf8e2eb03074a2af1U, 0xdfa9e8ca4010f31aU, 0x207f5531c9eda3feU,
  0xb3e01f06de4b6c7cU, 0xcc20f0e91aa033b6U, 0xc928c0e42981cb15U, 0x29ede0f461940dfaU,
  0xec2dda2ecbee33ddU, 0xecda25050af42affU, 0x4b21d648e7fce7daU, 0xfb81d9a4bacaaef2U,
  0x1639b1324bdec7f6U, 0x159a051560c54b29U, 0xb8ec25fecd3a46f8U, 0x450cc5d6ba9da5d4U,
  0x5bed7d40b30db17U, 0x3c0a7fbe3d0c18f8U, 0x44f847e47f2c00cbU, 0x20bf271c2400b937U,
  0xf902dbf9b221ed3bU, 0x27ef24d3dff408fdU, 0xb89dda3e1d578b15U, 0x97f6eec8aef85cd7U,
  0x8e662e0701281b9U, 0xc3af0d19bb12f70dU, 0x60bfd2cca43282aU, 0x81526bd294aeb516U,
  0x4611cdc900dc0b29U, 0xa8ff24cd42f13f9fU, 0xbdc92516dd082733U, 0x846f71a2cd306e5U,
  0xd6cfccc4c37fdfd4U, 0x4436fdd1cadf20e2U, 0x7fdc0bf2013003fU, 0x7fba3df8f83ad025U,
  0x86e686c9a6b632ceU, 0xfac0559f4a062ebdU, 0x305b2b6e8f5d352U, 0xb9bcf5b4f3702d35U,
  0xa7b5bfcd2ae177cfU, 0x1790221f7f5e4ef1U, 0x6bc71c05ec36ee3eU, 0xd3e0de03d57e3b20U,
  0xf2d5080e2dd86431U, 0x29812ce3f3fd0002U, 0x18f7681cbbb4df34U, 0xe0efef2d0ed3f5e1U,
  0x2450aa26044dc534U, 0x7ffb0df040fe15e1U, 0xec103be5f2242025U, 0x283813f3b7c41740U,
  0xc512dd1537ee1b41U, 0xc8eef2060b81359aU, 0x3810362aec1ef602U, 0xf01d292903c8cd00U,
  0xffd1e5f5f0c0e00dU, 0x160cec81f92e07ddU, 0xdc9c909c74f71f5U, 0xeb5ce66f25231cefU,
  0xefa2d4581f83d07U, 0x42928f4e90e01U, 0xb92963d03cb7ce30U, 0x2108b709ecebb4d8U,
  0x77ea09de037f0323U, 0x184bf1ac500e6501U, 0x2240acc91cc1e4f8U, 0xbaa908db1e490831U,
  0x34347f4552d138f3U, 0xe4d96cdf18f5d333U, 0xe1f1b1d48143efdeU, 0xe2e1db02abd7993bU,
  0x161f3fd4d70fcbc4U, 0x1338899124a81a34U, 0x22242a06f6e0ed5cU, 0xf81ce63e5f7f6ce5U,
  0xe8fc0deb180df614U, 0xc6e60a63c421d9dcU, 0xa5cbcd10b85d7fcU, 0xbd03bc27c0b414f5U,
  0x194a7fd099002e32U, 0xf1a7f942031d4b7bU, 0xb30591f2f3202fbU, 0xdb0cf1e118da04c0U,
  0x2f1ee8f23f0581c5U, 0x3cddbff9d4424dfaU, 0xf8b2021429ffb365U, 0xe0fb26bfe6e808f9U,
  0x1bdae815e3622e39U, 0x7fe8fb1a61e019d5U, 0xfef83801397ff974U, 0x1efae71cf2d00706U,
  0x60104f308ea3119U, 0xcd01f1000203fd18U, 0xc50ef82319318166U, 0x1ebe01bf55ccfbaeU,
  0xf715cbfcf5381e05U, 0xe91428f1f0de27dbU, 0xf0bfa10150edad1U, 0x33f1e3ea4e2619c7U,
  0x3525df0e64d9d129U, 0xb74181fe5592f431U, 0x5c3acc1ea697ffcdU, 0xd8b4b99719e504c0U,
  0xf2ecf9ec3fd7b353U, 0xd7107fb57f065215U, 0x8105e9fdcbc9edfdU, 0xc8ec6ded509b293bU,
  0xc10b1dd8e6191cbbU, 0x14f01d1ffb0bffa7U, 0xffaa9535c59139f9U, 0x5b07f6396b12987fU,
  0x332325ca25d019c7U, 0x5ee84a31bffffd7U, 0xa1fcdfdedeebf3b1U, 0xe40208392ce2feedU,
  0xcf39c6d6e40a0408U, 0xd9ff13f8081e7faeU, 0x37e5645d1b3dd501U, 0xfaa6a905006f1c7fU,
  0xde1da8d7e6ce9fecU, 0x38fda3d4e748cee6U, 0x2ed2f244f368f0d5U, 0xc11c1f8abf40b91aU,
  0xd09208f80c10dd91U, 0x2cfee0e67f19c241U, 0x3c3210927c4df6feU, 0xe96991dbe0d360d3U,
  0xf5ae7fe097b4eb10U, 0xc3c63078cfdb8448U, 0x15151e519fb8401fU, 0xdf38fcb315b801e2U,
  0xc3f1813a1a249254U, 0x3418cfdd4b439c3U, 0x18dd2754e0104decU, 0xe1707c64bf11317U,
  0xecec06ce55e7d13aU, 0x7002ed9233b4981U, 0xe538fbb25dd25d92U, 0x17971681cafce7eaU,
  0x301ad2d2721300feU, 0x4c12f6d014e9de53U, 0xd9f77ff49e0a323fU, 0x31dfd008180f1709U,
  0xdcf5febff70de144U, 0x150ad2c7024932e8U, 0xe2a121bc0f92951U, 0x907f080d0ab5a6d5U,
  0x54fc48ae0b33d8a1U, 0x6d27bd0015213118U, 0xe1f91514edc98118U, 0x100b04f8e0090001U,
  0x28ff20021d12f7eeU, 0xf6eef9e11c021df3U, 0x93019dd2f210615U, 0xc1ef2b25f2f7e411U,
  0x16221af6d9642d5bU, 0x7ffc5ce43d00140fU, 0xf3e7d31bd3efa8f4U, 0x5720b3f27fd503a5U,
  0x34d1725c2fbba2aU, 0xcd3cfc180e0dfdddU, 0xedff1e05e519de7fU, 0x27dfd8f605e4e60dU,
  0x14d8f6e0d7e81e1aU, 0x10f1f13b020c5d09U, 0xcdc5d8fa28efdaffU, 0x1be0dbf9361c1517U,
  0xe0eff8d78105f7e8U, 0x3315f40be421d944U, 0xd9d70df87f4aed2dU, 0x2cdbe5340724ff0eU,
  0x1490201c2aeb44d0U, 0xe6d4f0012721f9e9U, 0x1f3371ce9116ba9dU, 0xdee7f7421d8160caU,
  0xbca0dc36ace2e701U, 0x16e5311eb2c9b131U, 0x2f371ceaefcf1113U, 0xf914351eef4eedc2U,
  0xc8212e7f4d345568U, 0xb52227d5edbfa8daU, 0xd2a308cff700fbaeU, 0xa2daf41f914ef5faU,
  0x79ca7ff92746d516U, 0x50ab08cc4d29ef3dU, 0xdb0a01ecdcf00a29U, 0x71e22e1c7bbb3cfU,
  0xf0f50ded3e26fc7fU, 0xf9fc52f663c215b8U, 0x4979e2eafde53c39U, 0xf9ad1d0509ff16ebU,
  0x276805626ada81eeU, 0xff0bc4f7fa07b2faU, 0x2082726af020e6e4U, 0x37f2d9e012d4df0U,
  0xe393f0f0ba3e2af5U, 0x252ec249cbf41e19U, 0x6c49deb70cf60f36U, 0xf4d300bfc7c09914U,
  0x1f6be94935df1606U, 0xd912dceb7f12d42eU, 0xd04144d97f6ed4f7U, 0x3c4fbb06b707431eU,
  0xf1272adcf3cde718U, 0x3f8c01c00b2ed0e7U, 0x81e522f67fae07a9U, 0xf0071f0007c8b326U,
  0x708d26c61626f6e8U, 0x74abebe3001df147U, 0xbcecd1043cede905U, 0x7ff7bb170ef52fdfU,
  0xd4560a1a1ee99af5U, 0xcb0ce1c20bde1fdcU, 0xc215a0eea0cfadfU, 0x2fcdb416c0310edfU,
  0xd808f727d3615d72U, 0x7f1a931136b30327U, 0xedfc7d11fada082cU, 0xbd182df9b8b48635U,
  0xe33fe334246bf4d6U, 0xc17f6e88ca3e1affU, 0xfb1c2ce4ebcaadd5U, 0x81fa2d2edefedf1fU,
  0xb0140f2803ea04e1U, 0x9d231bddc534946fU, 0x18190a1de0220c22U, 0xf2f630b88928baf0U,
  0xc4819becd61807d2U, 0x22e711e94ddb2436U, 0x1ece61281d8dc2dU, 0x101303f3e1f8f3f5U,
  0x1c0ffdf7021c01ecU, 0x1806e5f903f3f108U, 0x124b14af3ad3173dU, 0x8100de2bd023274eU,
  0xf742f2936cd3340dU, 0x55c0ceaf1714181eU, 0x387f059019c3de16U, 0xf3fb91e2e7ebdcd1U,
  0xf8442af0eccc3219U, 0x68400eeea4c73a4U, 0xf91665000b590573U, 0xfae181d3d43034b0U,
  0xa209d3e401ffebf0U, 0xf11de12909000740U, 0xb7b33e411404f663U, 0x2d39e5f5e6cc4c41U,
  0x228113f19f3f050eU, 0xf908934094cc60dfU, 0x1dc835b8cf3c120U, 0xba18bf2432fead18U,
  0x13debfe435f8e49fU, 0x468117c54112f1e3U, 0xc7fc09427f0e3e29U, 0xcc0adb23edfd0a1dU,
  0x2180505400bf00cU, 0xe0f7e8eb26d111e8U, 0x600954fbdc63dd30U, 0xfee9f5eefc10dbb0U,
  0x81d9e5f9dbecf515U, 0xfac163dad41102f8U, 0xe2f0f5f819dce915U, 0x371b4fb6c348aa20U,
  0x14c310c72b177ffdU, 0xdfd632314b4a8e04U, 0xc22421433916c406U, 0x8120d8cdb5ed9de6U,
  0xcbd5849f04b5cba6U, 0xc41a2bdb0de9f34cU, 0x8d23331dfa2112e4U, 0xe9cf8ed816391cf0U,
  0xf45bbca1f2581f0U, 0xe1e9dcd2ebc21e1cU, 0x18d7f34d71336181U, 0xd612dc16c930bb39U,
  0x50f7d726ea1ee8e8U, 0xeedcff531c5134bU, 0xc07f28c9b502e4efU, 0x3dd8cce053c10ac9U,
  0x472b3436c0f14061U, 0xa18323300f13bbdU, 0xa4ee15eb10220e0eU, 0x370902d7fee129a2U,
  0xf4d90d22150181dfU, 0xbcfadd24b1e31e1cU, 0xe717d8d80c2dee05U, 0xf568e50781cd0a27U,
  0xeef0cfe15d15f29U, 0x1a4f11b10aa16a3U, 0xfe91f9fb1931e5e6U, 0xc44057cb81b24237U,
  0xdef5c598b636155cU, 0x30bcc5c61fa24524U, 0x6c41191134f4d72eU, 0xe711e2fc14c61f19U,
  0x57f3889dedf0206U, 0xbc5fef87b121f04U, 0xfae654b7fdf95ef2U, 0x68f54a17ee23ce06U,
  0xebb316acf9f8fe4aU, 0xdf0b20239ecc8129U, 0xb9fcebab25d1dd2dU, 0xffd5d700e8e009efU,
  0xece0e3e40f0d06d4U, 0x98137e6170f51d7U, 0x632b1cb2724dff9U, 0xf1b1d81502f22fd2U,
  0x54201dd75d1d2e5U, 0xfbdd0db47b2a8119U, 0xbc041828271cd534U, 0xb3a1bd06f24c0b11U,
  0xd7da148cf89501faU, 0xf581ca2828dcfe85U, 0xfe2ad4bbd9db8154U, 0xbe2e8dc040e21dbU,
  0xca1a01f8f9faec1bU, 0xffeec909efd7fddbU, 0x1cb47c3c17282fefU, 0xe06273ef419529b5U,
  0x22137ff11f6bd557U, 0x3177b21afea5ace1U, 0x23314afeec81fe06U, 0x2f01afcb1afdf5d4U,
  0xf3350e48b11b5022U, 0xed5351580e1509f5U, 0xea2b0b2d0033017cU, 0xefd3227f1c6433f7U,
  0x28dfabed67fb5d29U, 0xf205cfc304220212U, 0xf0ef88edf8e5dd7fU, 0xd7e3d13b1dd8e411U,
  0xba12f9faf25643beU, 0x19f3cdb612d3d74dU, 0xe03a0ed5dacddb25U, 0xe53bedf54b591cU,
  0x81caf0ae41da14deU, 0x16ceef1306e9f401U, 0xb12e0ffb06137ffaU, 0x2a2cefe43b2031bbU,
  0xce1fd9250b17ca2fU, 0xd8f5135de5b0070eU, 0xef7f430c37fd21aU, 0xb2f0809f40ce318U,
  0x3a00240edd4f5f1U, 0xd0f112fffa2eb938U, 0xe8e6f1f6e6e001cdU, 0xc5060a0ca421da08U,
  0x7fd42be70d5ae013U, 0x3b0adf9838e01924U, 0x3cd4ede11314cb63U, 0x1ce5f8f13c6f2e2dU,
  0x55a7fec33b491e65U, 0x7f129ceb60e41311U, 0xde05aacbed05f967U, 0x4bb8b9e11bc9cee8U,
  0xcd0cf2cdbb0d0760U, 0xd99e4c383a537fb5U, 0x19dffc0c8a0d07e7U, 0xca0df52f0314d722U,
  0xf104ccf90005f1f4U, 0x250303a07f0c1df6U, 0x14e9001a77850a19U, 0xdc25f1e81eca09b9U,
  0x34127a8fa07e1e2U, 0x35083beed5e23c7fU, 0xb1f0fc40c3f7fb9U, 0xdf5d505f13411ecU,
  0x4f1fe13f1e02315U, 0x1df305020e0f34f2U, 0xde0132de962639aU, 0x1b00c41dc7f5d21fU,
  0x2ef437eecf5244ffU, 0x2d4d14f9dceeec7fU, 0xc223f2172c8108d4U, 0xf42766d921e7c1f7U,
  0x22150602293506caU, 0x377dfc60d31f7d7U, 0x4e02480f23ad0d0bU, 0xee6de30be91a0418U,
  0xf65b1b0289e5e51fU, 0xf8f5dec903dc7581U, 0x2aac15401cf8b09cU, 0xca1cfcf85ffd55U,
  0x20e3f21f0a6f1d21U, 0x497f9bac1fe7222aU, 0xe82c0c26547f5f36U, 0x4abbd445b232ba44U,
  0x63e2efe5dcefbee2U, 0x3104cea27d4f178U, 0xe7cb340dc2d1ee32U, 0xe72dfa713b094b29U,
  0xd18eecf905213e4U, 0xd3f0022be65a7feeU, 0x2ca2d73b42d600f6U, 0x1e05db9a1bf906c4U,
  0x6c5727e7245d366dU, 0x5002e5147fe65900U, 0xf80406fadbf71581U, 0xce71314ee230121U,
  0xe90ae4f7ff1e09eeU, 0xf08f7e40cedfa12U, 0x514e7fdf3c4d565eU, 0xffec62e025f0e4d5U,
  0xcbf6d01ed1431a42U, 0x2c40ac281ef12ad5U, 0xad15582be5225ec0U, 0x2f6690cc6cf39ceU,
  0x5c12c16432664123U, 0x34b86fead27fe604U, 0xfffaf2fef4f27fecU, 0xe72df4c013024741U,
  0x112a49cc1dd0bea7U, 0xeadd981b11e427efU, 0xfef10e1145eff8e3U, 0x5fbfa021940ffe6U,
  0x3f9e1c5eb0d0300U, 0x162ecf50261c037fU, 0xe1b5470b09b61b01U, 0x4ddf2a1beb11ef3eU,
  0x69840811d69ea32U, 0x1bcfedde02ffc5e8U, 0x39cbf80b1c22d0b1U, 0xa02d357f1b2a354fU,
  0xc6242f2acf16adf1U, 0xf41de00ff0028e25U, 0xf85724b9fdfb040fU, 0x2201bc33ccf2e7fdU,
  0xed3a11d5e4e4c7fcU, 0xf20cb0aff98109f1U, 0xc3e1d6efea81028cU, 0xcc35a82dee060f49U,
  0x1debe1cf5a48f3f1U, 0x5ec105b1380fe44fU, 0x99f82a390b123529U, 0x1cd222ecf7080658U,
  0x5cfe43c5eb955f9U, 0x81e1942a1628f8d0U, 0x4e7003cb4cf36a7fU, 0xef50ce70de1f3731U,
  0xc0619d250982dca7U, 0xe9b9b705e03be507U, 0x9abb27f310f30d09U, 0xdcfec1f97f425911U,
  0x1ee5dd0b9665c8daU, 0x2beea23a912970ebU, 0x71fef08e0eaf1f3U, 0x81cf20e2a14dcfb6U,
  0xe8e0d3e020047df3U, 0x1c26431f33ab022aU, 0xc767d3b509d02e10U, 0xed2d7fd2a2d4fdeeU,
  0x5ce7042348f35b1aU, 0xdc171ca511e6741aU, 0xf20728e4c8fb20e0U, 0xe82c489fff00215dU,
  0x91cceebcd5e71ba4U, 0xf1da8107c30c64f4U, 0x62f3271fedf1fddfU, 0xf6fc10fcdf1ecbebU,
  0xe881c6dafb1a2f1fU, 0x2008fee728ea43eaU, 0x1c23c5c981fd5ba3U, 0x14c0031143f8f5e3U,
  0xd8dec118b70823e5U, 0xec070912d4e7f205U, 0xe0d9d13db181c98aU, 0x239d9e6e71ffc35U,
  0x60fc28e163080ff5U, 0xdd0ba4a33aeddb06U, 0xefe4dd65a01abc13U, 0xda71815cb84ad9e7U,
  0x34fda9956b21b3b5U, 0x1dea0bea087206d7U, 0xe9ec141ffbd41612U, 0xf909f527003de932U,
  0xf2dde0c9ee1701dbU, 0xae81be3e47f31f9U, 0xba0d5c04e301e8fbU, 0xf342c869633acbdeU,
  0xf2d8dea9cb7f3fc8U, 0x53935c8e22a491fU, 0x5df307367503de99U, 0xf433c032efa4ff11U,
  0x3ee731fac1172b71U, 0x42e6d3b27a811ab6U, 0xc9230ffd486ce47fU, 0xd81bb30217414c00U,
  0xe516165afbb82843U, 0xb0eea12ed9eedd2fU, 0xe31b18ef2fdc5fafU, 0xe9c3d7ea230d4934U,
  0xd57fc72b2aea2d8eU, 0xa5f8cc20fa07fc25U, 0xda33f9111925d56dU, 0xdc7ffae5d8da32f4U,
  0x255a0a973b21aba6U, 0xba09191ef421f3e2U, 0xd22e1e6a455667fU, 0xf9f9de32050d1f21U,
  0x14002735d2f5fae5U, 0xd4e3eaeee6dee30bU, 0x13dd492dfb30c5U, 0xb1554e49fb000a36U,
  0x19aae6e54b044c01U, 0xe7054ae70f30818dU, 0x4910d2063d1be8ffU, 0xc41d3b9fa9e48108U,
  0xa4cfda17dd491600U, 0x7a322f0141131226U, 0x2bde0ae47f230429U, 0x26133fff042005efU,
  0xe40d545914307d6cU, 0xbcff07fef4e4addbU, 0xe00c12190709027fU, 0xfe1119fd141f1709U,
  0x5db180706f40516U, 0xee1af3eb2000de09U, 0x2ae4e8fdf9c1f9c1U, 0x102bc409db001bd5U,
  0x338f2502fd0dda16U, 0x5cc043d27ff629e3U, 0xc20130c9cffbede9U, 0x1ebff41afc581608U,
  0xdadbd6f011105f7fU, 0xb8eed92defcbbf29U, 0x215b84547cd6132U, 0xa451035ad12a340cU,
  0x7fc71d27f6c2edc8U, 0xcf8626d93942ffedU, 0x5f107fd2b33909caU, 0xd3f9f5f11e4c10a7U,
  0xc2c609215703f238U, 0xdce5275735cce624U, 0xd194da2000096d44U, 0x11073cb818f61ed9U,
  0xc6df20c725ea0ebdU, 0x810feb35e33b42a6U, 0xbcf54df27f178acdU, 0x22cbf6a101b82cd2U,
  0xa400c9ed2ef004d5U, 0xc9fff10c68a17c5U, 0xda15e4e11d08460bU, 0x90f0f0178352ef7fU,
  0xd102edc8d9bb4288U, 0x2abff6e8f33fe955U, 0xb1e9274a2cedeb07U, 0xc1ebfd1dbff7f04U,
  0x5f6263e7f08b30fU, 0xe0a1c32ddcdaf8d6U, 0x170d06180c1fcc27U, 0xc8fb01e7b41e19d3U,
  0x4fd3510ee232212U, 0x3dfe7f2a07fa2b2bU, 0x9cd1261e04c0813dU, 0x4cdd2ceddf1c1141U,
  0x3204353423fa0cd4U, 0xaaf03a28dc37c82fU, 0xfffffe55fffff5e3U, 0xffffff4900000597U,
  0xfffff8f3000007cbU, 0x91100000581U, 0xfffffcdc0000076dU, 0xfffff6e1000000bbU,
  0xffffd22afffff8d5U, 0x15480000079cU, 0xfffff55dffffff85U, 0x18bb0000036eU,
  0xf77fffff9adU, 0xa79000014e7U, 0x6ecfffff59eU, 0x12ca00001266U,
  0x19e8fffffb45U, 0xfffff2d7fffffeceU, 0x138affffef9aU, 0x158100000a56U,
  0x131fffff980U, 0x166dffffffd5U, 0x41700000978U, 0xfffffedafffff526U,
  0xfffffc1500000603U, 0xfffff6b0000017f6U, 0x397d00000bc5U, 0xfffff857fffffe32U,
  0xb38ffffed4eU, 0xb16fffffc9cU, 0xa9b0000027eU, 0xee400000145U,
  0xfffffcfa000008f5U, 0xfffffb69000004cfU, 0x6b7000001d0U, 0x30500000463U,
  0xfffffaeefffffd76U, 0xfffff1fa00000aaaU, 0x115000002e0U, 0x104fffff763U,
  0xfffffef5ffffff75U, 0x1d8f000006ceU, 0xb6e00001b47U, 0xffffe0b9fffffb1cU,
  0x93500001040U, 0x104a00000989U, 0xed9fffff836U, 0x16c7fffff8f2U,
  0x3bc00000444U, 0xfffff900000004fcU, 0x32000000d0dU, 0x961fffff0dfU,
  0xdc8fffffee9U, 0xfffffa26fffff4f0U, 0x2f600000a88U, 0xfffffa610000162fU,
  0xdb8ffffe8e2U, 0x17a0fffffb4dU, 0xfffff161ffffffc4U, 0xd4e00000926U,
  0xfffff189000016bbU, 0xfffff4220000003bU, 0x4abfffffebdU, 0xfffff67dffffffceU,
  0x7a70000066dU, 0x1681000004d0U, 0xffffff7c0000026cU, 0xfffff5ffffffec0dU,
  0xa1400000c32U, 0xfffffe40fffffa9bU, 0xf03ffffddffU, 0x66bfffff347U,
  0x9ad000032d0U, 0xffffffed00001517U, 0x559000004ccU, 0xfffff47900000574U,
  0xfffffa13000035faU, 0x893000007fcU, 0xfffffa8900000663U, 0x50000001cd8U,
  0x10d20000022dU, 0xfffff906ffffedc0U, 0xffffffc000001dcdU, 0xfffffed0ffffe640U,
  0xfffffe06fffffc9aU, 0xa1000000536U, 0x434fffffa16U, 0x84d000022deU,
  0x261200001339U, 0x1096fffff253U, 0xfffff829fffff3feU, 0x1cca00001481U,
  0xfffff7f4fffffdcdU, 0xcccffffff17U, 0x3d700000fc8U, 0xfffffc520000049aU,
  0xfffffd50fffffe5bU, 0xfffff6650000072eU, 0x81820c9b15b0bcdcU, 0xfaed29160d1d6ebbU,
  0xbff230c308b2ea37U, 0x50fdecf5e01bf0ecU, 0xb4e3bd2213dcb731U, 0xbd0c23e170620e9U,
  0x7f1a1228d4f1d60fU, 0x8c23cb7f277be4a8U, 0x3bb30d3394d71433U, 0xbb14ee82fa7fd71bU,
  0xa2f627e242df3c30U, 0x8aa6f0b5dbed14aeU, 0x1027c0e029ef8116U, 0x88272c01d199c214U,
  0x7f1ef5a0ead90bd4U, 0x2cfaea2dd1d8e6dcU, 0xd0810c21d840bab9U, 0x530237baff480f29U,
  0x26ba54d5811f6819U, 0x180919b804baf706U, 0x140b7f91f6e0102bU, 0x22c1e6fcc23d4206U,
  0x12d8fade1cb509f9U, 0xf2bf957ff92f0d0bU, 0x282e2ea9bc819c83U, 0xdc787f7f7f7fab81U,
  0xef1b31db1481587fU, 0x7f1be1fcf886c22eU, 0xb399a514096a7b1cU, 0x2b8a7ff219cc95c0U,
  0x62c51aceff4bd2d8U, 0xa4452a23453956a7U, 0xdd811b70ae1be57bU, 0x15117ff50d2a7fdeU,
  0xd47fc5ef02c45f7fU, 0x7f16acad813c8281U, 0xf806b80138f3aa0dU, 0x7f2d82e5818144a4U,
  0x5c65a1f9e6c22f27U, 0x510b0dee5d91d61eU, 0xb1317fb37fe833U, 0x79f301cec4fa3cacU,
  0xe8207f2bddc31809U, 0x7f0c4dfe7fb399d6U, 0x9a045ef425bfa9f5U, 0xa9f6aadc49d8fa29U,
  0x7ff7bcdfc9042316U, 0x2881eb9c6a6281abU, 0x601533b2e5b00dd9U, 0xe319460ff12578cfU,
  0xdbd143b8f287e8d2U, 0x3ff5d5f1f89df2efU, 0xc6f0f5af0f08950aU, 0xf3f01bea81ef0addU,
  0xba31f33710f3ca1eU, 0x81ffddc1b5373dd0U, 0x88d1d87001b30f22U, 0xc79f07ba1eb8df2eU,
  0xdef2335370b1e28U, 0x4721a59ebaf70530U, 0x12ddf72f03ff3006U, 0xb44b039ef296b50eU,
  0xaf170d92f70f7fe5U, 0x9df7f07f7e7b3f9U, 0xd8ae0a23e9edf7a1U, 0xf3f0b4e9ef2c0203U,
  0xe81c03e2bc5a400cU, 0xfa23f46613f2cf1cU, 0x3edf027f210deee0U, 0xebabfce1dc3136e7U,
  0xae803a1278110f9U, 0xdb7e5750316191bU, 0xc4eb44c4bb147faeU, 0xfed243280b1c92e8U,
  0xc87f30ac7f03e44fU, 0xb8cfd00b7f286624U, 0x3583b97f0081a151U, 0x1c2b89dfb49104daU,
  0x603a7f0ef6e6d60dU, 0x67f6c250928181b1U, 0xe8243bf5dd817fc7U, 0xf717bff3d440b4e5U,
  0x819df631f27fa8e6U, 0xbacdaea8a322efdfU, 0xfe7f27d57f8ac515U, 0x242433d35b5bf82U,
  0x40272e81abc8ed31U, 0x81bbe87f018181e3U, 0xb1ac5bb981544c81U, 0x26bb09f6817f05efU,
  0x7fefdacd3acc0e09U, 0x3ed22fef874d843U, 0x4a070ace25f50f7fU, 0x7fa2aa7fba213ff0U,
  0x4922fa660ffa09f9U, 0xec6f8d53ce240e4U, 0x94df7f7f0363b91fU, 0xda6e2474990c2260U,
  0x7f0681b417387fa5U, 0xde14367fa684817fU, 0x81bfb9b481ff687fU, 0x7f7f8dbbfc817f81U,
  0xd5950f527f7f687fU, 0x1ec481384f9bf981U, 0xef3b7f7b1456c681U, 0x627f47f281012fa7U,
  0x24a87f7f18c97f07U, 0x397f811f227f8150U, 0x7f3f817faa813e7fU, 0xc47f7f7f62708138U,
  0xf6f87fe7812ab97fU, 0xab7fad8e81f7a7dbU, 0xedf7f9eacd348a5U, 0x7f7fd94deb357f7fU,
  0xba7fcc7fcb81ff7fU, 0x191cef21ec277f7fU, 0x81814bfa7f7fc08dU, 0x900b7fdb6181817fU,
  0xa77f7f81ee6c7f7fU, 0x7f2f81977f81ea81U, 0x51a166e61e08fb7fU, 0x7fd13832280d81deU,
  0xe19b7cb1c01be6eeU, 0x3e7fe707d801de06U, 0xd281cde70e61c626U, 0x3075b7f0bc1f7f2U,
  0x9c5804d3f7d4bbfdU, 0x4b2cc1c981c65105U, 0xe11f2d597faa0615U, 0x2ac015e187a1c4e0U,
  0x22d2fb1820d22cd7U, 0xe5b53c81c3fffc68U, 0xf3f7102bf19a43f9U, 0xc73b3ee7c6dfca7fU,
  0xd12fd290f1e52606U, 0xb9ba6707f2bca87fU, 0xe1b533c29d06a4a6U, 0x14c8dbc6a276f119U,
  0xc91acb93bee42effU, 0xe91e147f0a7f2826U, 0x1538bfba58f619a2U, 0x3981fff8813457f6U,
  0x410eebe5ea0dfff8U, 0x5feefdf27f92deeU, 0x887f40acb70e82f0U, 0xc709030a21072207U,
  0x1cd42a21dcbc1edU, 0xae005e94b4264f3U, 0x16c67da6da334435U, 0x204a43bdc225bb53U,
  0x8efecdcfba5e616U, 0xe88146b8edb7de16U, 0x99e815abfbf926fdU, 0xcf07248cbcdc4365U,
  0xc2fdec31e9facdf1U, 0x44080acbdf09fc33U, 0xf9f175cbcff95dfdU, 0xd309bf16fcd1c4b7U,
  0xbce6f9e0408e030cU, 0x3de51e39ef9205fcU, 0x5ecac44ddc147f45U, 0x2ef165dfb920fa0cU,
  0xe8f9f2c54d370b04U, 0xec51e5bef1bdf70eU, 0x12f6a74403ef203dU, 0xd5e4dc1991c6191cU,
  0x21280002e8f2050eU, 0x7fcf6ec35181615U, 0x943612f67f3bc02bU, 0xf817739e62cc910U,
  0x1cfc9c8bfe3aafd0U, 0x172881f0c17fd7dbU, 0xc0bdb7f5ca90844dU, 0x3d0844e63512bd32U,
  0x107f0e7f0595810fU, 0x3d8963243f88d217U, 0xb2be381274309ecU, 0x81dc025d15fbd07fU,
  0x1bf02a5e7fd8adcaU, 0xfc2ac52c0b0a6907U, 0xcff3f0c168126c6U, 0xf83dab48deb8b688U,
  0xaf8174a36b5006e8U, 0x4e87bc3f2db9ae05U, 0x7f9fa81f0acda1b4U, 0x75ecfd81bc519b69U,
  0xfe04fcff3c7a7f0dU, 0xdb7f81c8cb9a3038U, 0x5a3ae5739b7e7f29U, 0x60bdfff6b59881e7U,
  0xdc08e9b87f91f70eU, 0xfed2c8be8de94d98U, 0xdbbd1cfb2826df13U, 0x1be3fd0a23fd07f5U,
  0xfdca1581f7e7c8fcU, 0xe90f02f1ee39c6e5U, 0x20c47f0cded67ffcU, 0x192a07f845e0df5cU,
  0x49f5dff31bd00f0dU, 0xe7ef37a2d787e9f8U, 0x810b05ac25d609e6U, 0xf803fd81eedeab61U,
  0x2addf02346f7b7ffU, 0xb5882ae6e50804a8U, 0x2f4ba021004d600U, 0xe31fb70515eba66fU,
  0x10d6e1e32a7fd1fdU, 0x1eefff01d395fc07U, 0x2ec3d065da13c52eU, 0x3c1081f9ccf50733U,
  0xf609fdd81839eefdU, 0xf01a1c00fdb010ffU, 0x1774f5c5e90019c2U, 0xdffcf6e5d95c270bU,
  0x220ff58b03d2fa01U, 0xf3e0bbcf1fe6001bU, 0xbc60000016dU, 0xffffffe5fffffc4dU,
  0xffffe01900000e46U, 0x111d00000c50U, 0x3fa00000575U, 0xfffffe98fffff40eU,
  0xfffffe1affffe959U, 0xfffffe19fffffab9U, 0xbcfffffd22U, 0xfffff7a200000ef3U,
  0xfffff73e00002875U, 0x15efffffeeaU, 0x1541fffffab9U, 0xffffff240000000eU,
  0xfb9fffff8eeU, 0xfffff7fffffff710U, 0xfffff9d1ffffef79U, 0xf59ffffff48U,
  0x122affffffc1U, 0x1135000023acU, 0x1e0000096eU, 0x30a000014b3U,
  0xfffffd04ffffffa7U, 0xfffffb60fffff39eU, 0x1406fffff210U, 0xfffff92900000a38U,
  0xfffff880fffff3b6U, 0xffffff2c00000201U, 0xfffffb7b00002172U, 0x4d30000185bU,
  0x29c00000123U, 0xfffffc5e00001c27U, 0xfffffcd0fffffcbcU, 0xfffffe7b00000768U,
  0xffffeff6fffff170U, 0xd24fffffc97U, 0xfffff9befffff9c3U, 0x188c00000405U,
  0xfffff8b00000182aU, 0x343fffff3c2U, 0xfffff8b5fffffd87U, 0xfffff8a0000000c0U,
  0xfffff38cffffe769U, 0x9b9000014f5U, 0x903fffffed7U, 0x1ab9fffff8c7U,
  0x14b0000017a0U, 0xfffff75effffff2dU, 0x945fffff2a1U, 0xfffff9f600001a7fU,
  0x4a6fffff34cU, 0xfffff56ffffff965U, 0x174cfffffbbfU, 0xfffffcb90000204bU,
  0xfffffdf7fffffdcfU, 0x1038fffff250U, 0xfffff99bfffff0d7U, 0x24200000640U,
  0xfffffe19000025d1U, 0xfffff7abfffff7d9U, 0x3bfb000003daU, 0x36c0000209eU,
  0xfffff593fffff7d3U, 0xfffffd6a00000d6dU, 0xfffffd4200001e79U, 0x28d4fffff83aU,
  0xfffff2bbfffff1edU, 0xffffff1b00002d6eU, 0xfffff70bffffff95U, 0x2ae2fffff9c0U,
  0x4b400001655U, 0xffffe60affffff3cU, 0xfffff3b3fffff1ecU, 0xfffffcdefffffcd4U,
  0xfffffcb7000005d6U, 0xffffff44ffffec44U, 0xfffff309fffff522U, 0xfffffb5400000258U,
  0xa6fffff84cU, 0xfffffc34fffffd0fU, 0xffffff6cffffffcbU, 0xfffff230fffffbbeU,
  0xfffff640fffffefdU, 0xfffffd9b00000551U, 0x368fffffd09U, 0xf1200000593U,
  0x68200000002U, 0x33000019c1U, 0xfffff73efffffa7bU, 0xfffffb7200001116U,
  0xfffffbc10000144fU, 0xfffff240fffff8baU, 0x9be000019d2U, 0xfffff1c6fffffe39U,
  0x17900000042eU, 0xfffff37d00001615U, 0xfdcc1e09e2011a36U, 0xeffe0cc9fcf7f7e4U,
  0xb5302408819cd9fdU, 0x1696edffeff6f9efU, 0x29b341d20a05f7feU, 0x1192412da2215fdU,
  0x1d00abdcf5f8f50fU, 0x1325bbf6241df4b6U, 0x2ef5fc36131e0151U, 0x4034bef0441d0205U,
  0xd9e9fbffe22a50d1U, 0x23130602ef02fcfbU, 0x192ef2a81ddc03d7U, 0x280204efc62cf50fU,
  0x1b0016f0da1ffa40U, 0xdd1814cf30de24e9U, 0xd900fa1324c43f37U, 0xe10de7070403edbbU,
  0x232509fefe280219U, 0xe5c710ecf4fef621U, 0x1517200536ca37f2U, 0x1fea34c64401f1f1U,
  0x24ae4070805fdebU, 0x5d21410e03223fbU, 0xe731cc324905dbfaU, 0x12110feac6d222c9U,
  0x314313f1f51bd5d3U, 0x10111f26e4619f2U, 0x8b5f3e314fc1b29U, 0xcd15084d2cbf2323U,
